<unk>	0
<s>	0
</s>	0
▁the	-3.25646
,	-3.26529
.	-3.29466
▁to	-3.88159
▁of	-3.9321
▁and	-4.0105
▁a	-4.06008
▁in	-4.2962
s	-4.36485
▁that	-4.70448
▁	-4.82238
▁is	-4.82373
-	-4.83713
▁for	-4.9845
▁on	-5.15942
'	-5.16328
▁it	-5.22534
▁with	-5.29194
▁I	-5.29958
▁s	-5.32303
▁The	-5.32511
▁was	-5.37448
ing	-5.3932
▁as	-5.46658
▁be	-5.51178
▁are	-5.61597
:	-5.6405
▁have	-5.66783
▁you	-5.68673
▁by	-5.69982
▁at	-5.70941
▁(	-5.72222
▁from	-5.74138
▁this	-5.78557
▁he	-5.82848
▁not	-5.84935
▁"	-5.88297
ed	-5.89009
▁an	-5.90297
d	-5.93211
▁has	-5.93505
▁his	-5.95443
▁or	-6.03008
▁they	-6.07398
e	-6.08016
▁said	-6.08984
)	-6.09663
▁will	-6.09672
▁we	-6.12353
▁but	-6.1265
▁their	-6.17992
▁can	-6.18113
▁who	-6.23723
▁more	-6.24897
t	-6.33928
▁one	-6.3413
▁all	-6.34158
▁about	-6.35191
▁t	-6.3969
a	-6.39823
▁were	-6.40361
▁which	-6.41302
▁had	-6.42134
▁out	-6.45698
▁would	-6.46307
▁been	-6.47655
▁up	-6.50675
▁It	-6.5113
?	-6.51786
▁also	-6.63614
▁like	-6.64517
▁In	-6.64915
▁what	-6.66176
ly	-6.66441
▁when	-6.67041
▁A	-6.67177
▁people	-6.69275
c	-6.6975
▁than	-6.70987
▁time	-6.71438
▁there	-6.71552
▁so	-6.71981
▁0	-6.74535
▁your	-6.75665
b	-6.76478
▁its	-6.76496
▁just	-6.78567
▁other	-6.78939
▁do	-6.79293
▁into	-6.79881
▁if	-6.80588
▁her	-6.81842
f	-6.82714
/	-6.84473
▁some	-6.84849
▁my	-6.85456
▁our	-6.85561
▁them	-6.86675
▁no	-6.87418
▁only	-6.91222
▁He	-6.91951
"	-6.92686
▁first	-6.94241
▁over	-6.95004
txt	-6.95248
ustar	-6.95594
0000644	-6.95672
▁two	-6.95984
▁new	-6.96358
▁But	-6.9692
y	-6.97152
▁00000000000000	-6.97358
▁could	-6.98965
▁after	-7.0039
▁This	-7.00422
▁she	-7.05777
▁We	-7.07116
▁get	-7.0807
;	-7.08115
▁how	-7.09013
▁most	-7.11763
000000000000	-7.11974
▁because	-7.13295
▁now	-7.14226
▁me	-7.14996
▁him	-7.15139
▁any	-7.15602
▁years	-7.15782
."	-7.16255
▁-	-7.17229
▁And	-7.22343
▁year	-7.22679
▁where	-7.22786
2	-7.234
▁even	-7.24351
,"	-7.24918
▁make	-7.25866
S	-7.25884
▁re	-7.26283
▁these	-7.2798
▁way	-7.28513
!	-7.28727
▁back	-7.30391
m	-7.3053
▁being	-7.30794
▁much	-7.33875
▁very	-7.33951
▁many	-7.34169
▁last	-7.35672
▁those	-7.35721
▁then	-7.36629
▁[	-7.37271
▁know	-7.37703
▁don	-7.39595
▁see	-7.3999
▁well	-7.40224
▁work	-7.41032
▁should	-7.42217
▁If	-7.45378
▁before	-7.45384
1	-7.46853
▁use	-7.46885
▁through	-7.47141
▁think	-7.47441
▁made	-7.47904
0	-7.48927
▁against	-7.49315
er	-7.49785
▁such	-7.49836
▁going	-7.51494
▁us	-7.53205
▁may	-7.53211
▁good	-7.53368
▁They	-7.53759
▁did	-7.53979
▁world	-7.54347
▁game	-7.54605
▁while	-7.54776
▁want	-7.55344
5	-7.557
▁U	-7.56544
]	-7.56559
▁says	-7.56593
▁You	-7.568
3	-7.57093
▁between	-7.57108
8	-7.57245
▁still	-7.58378
▁take	-7.58588
▁down	-7.58643
4	-7.58928
▁right	-7.60043
▁go	-7.60381
re	-7.62352
▁need	-7.64261
▁same	-7.64292
▁own	-7.64754
▁government	-7.6577
▁say	-7.66041
▁off	-7.66061
▁That	-7.6657
n	-7.66834
I	-7.67135
▁around	-7.67298
▁part	-7.67892
▁long	-7.67972
9	-7.6807
▁team	-7.68713
▁here	-7.68844
▁There	-7.68966
▁three	-7.6978
6	-7.69865
▁Trump	-7.71129
▁As	-7.71163
al	-7.71168
▁used	-7.71255
▁state	-7.71289
▁1	-7.71423
7	-7.73258
th	-7.73271
▁S	-7.73843
▁day	-7.74328
▁under	-7.7445
▁New	-7.74849
).	-7.758
▁really	-7.76028
▁since	-7.77435
▁during	-7.78647
▁both	-7.80295
o	-7.80662
▁So	-7.80714
▁For	-7.80894
▁m	-7.82305
▁told	-7.82814
▁2	-7.86144
▁another	-7.86473
▁public	-7.87154
▁something	-7.8797
▁every	-7.88001
▁C	-7.88449
▁too	-7.88484
),	-7.88834
▁end	-7.89046
▁life	-7.89218
▁found	-7.89631
▁might	-7.90014
▁things	-7.90507
▁3	-7.91672
▁few	-7.92621
▁lot	-7.9362
▁does	-7.93747
▁ve	-7.93819
▁never	-7.94035
▁d	-7.9455
▁each	-7.94617
▁When	-7.95475
▁high	-7.95701
▁next	-7.95763
▁different	-7.95855
▁got	-7.96108
▁come	-7.96419
r	-7.96693
▁help	-7.9745
▁10	-7.97499
▁look	-7.97556
▁support	-7.97595
▁'	-7.98202
▁system	-7.98427
A	-7.98577
▁D	-7.99144
▁What	-7.99939
▁best	-7.99989
▁find	-8.00677
▁place	-8.017
▁great	-8.02156
▁man	-8.02423
▁show	-8.0257
▁better	-8.03107
i	-8.03218
in	-8.03275
▁home	-8.03704
▁play	-8.03744
▁point	-8.03806
▁million	-8.03897
▁including	-8.04635
▁set	-8.0479
▁without	-8.05017
▁week	-8.0543
▁second	-8.05799
▁group	-8.0606
▁called	-8.06266
▁season	-8.06591
▁data	-8.06672
▁didn	-8.07381
▁far	-8.07562
▁country	-8.08076
▁T	-8.08665
▁using	-8.08892
▁case	-8.09908
▁little	-8.10212
▁She	-8.10222
▁left	-8.105
▁company	-8.1101
▁number	-8.11109
▁women	-8.11158
▁police	-8.11259
es	-8.11727
▁put	-8.12537
_	-8.1267
The	-8.13148
▁percent	-8.13748
▁less	-8.14061
▁per	-8.14377
▁American	-8.14721
▁already	-8.15285
▁On	-8.15967
▁four	-8.16262
▁United	-8.16858
ve	-8.17481
▁information	-8.18293
▁able	-8.18324
▁M	-8.18773
▁power	-8.18947
▁change	-8.18996
▁later	-8.19144
▁top	-8.19305
▁thing	-8.19555
▁money	-8.20359
▁president	-8.20558
▁why	-8.20943
com	-8.2119
▁To	-8.22246
▁big	-8.22454
▁always	-8.23516
▁One	-8.24588
▁No	-8.25609
▁4	-8.26382
▁US	-8.2647
on	-8.26986
▁doesn	-8.27
▁give	-8.27063
▁making	-8.27146
▁fact	-8.27176
▁B	-8.27578
▁city	-8.27592
▁must	-8.27929
▁law	-8.28272
▁important	-8.28564
▁enough	-8.28696
▁large	-8.28809
▁again	-8.28867
▁away	-8.29331
▁--	-8.29713
▁least	-8.29827
▁real	-8.2987
▁past	-8.29903
▁came	-8.30363
▁working	-8.30633
▁though	-8.30663
▁hard	-8.30928
▁took	-8.30993
▁political	-8.31851
▁Mr	-8.32029
▁free	-8.32819
▁games	-8.32997
year	-8.33003
▁often	-8.33004
▁campaign	-8.33531
▁become	-8.33929
▁former	-8.34242
▁President	-8.3426
▁5	-8.34301
▁report	-8.35029
▁ll	-8.35075
▁men	-8.35116
▁story	-8.35218
▁full	-8.3536
▁open	-8.35665
▁keep	-8.35722
▁allow	-8.35735
▁until	-8.36048
▁children	-8.36575
▁actually	-8.36604
▁At	-8.36653
▁days	-8.3679
▁run	-8.36957
▁according	-8.36989
▁ever	-8.37381
▁State	-8.37665
D	-8.37739
▁start	-8.37924
▁won	-8.37978
▁name	-8.37981
▁media	-8.38419
▁seen	-8.38654
▁school	-8.38713
▁small	-8.38981
▁whether	-8.39219
▁family	-8.39591
▁20	-8.39828
▁today	-8.39987
▁players	-8.40395
▁times	-8.40532
▁early	-8.40677
▁order	-8.41101
▁getting	-8.41222
▁water	-8.41308
x	-8.42261
▁five	-8.42359
▁P	-8.42474
▁likely	-8.42502
▁months	-8.42516
▁done	-8.42621
▁several	-8.43111
▁un	-8.43238
▁among	-8.43808
▁University	-8.43988
▁having	-8.43997
▁process	-8.44487
ll	-8.44519
▁]	-8.44551
▁With	-8.44779
▁p	-8.45101
▁Whil	-8.4554
▁sure	-8.45814
▁within	-8.45893
▁Obama	-8.46085
▁went	-8.46112
▁known	-8.46477
▁course	-8.46562
▁States	-8.46641
▁After	-8.46688
and	-8.47015
▁feel	-8.47079
▁problem	-8.47146
▁social	-8.47187
▁community	-8.47231
▁=	-8.47267
▁line	-8.47505
▁doing	-8.47533
▁future	-8.48133
▁business	-8.48171
▁John	-8.48215
▁example	-8.48531
▁person	-8.49101
▁de	-8.49148
st	-8.49464
▁York	-8.49477
▁call	-8.49541
▁)	-8.49664
▁America	-8.49684
▁head	-8.49881
l	-8.49903
▁means	-8.49928
▁possible	-8.49985
▁others	-8.50084
▁given	-8.50442
C	-8.5053
▁along	-8.50601
▁E	-8.51049
or	-8.51069
▁let	-8.51094
▁All	-8.51155
▁edit	-8.51172
▁House	-8.51192
▁video	-8.51357
▁control	-8.51375
▁reported	-8.51514
▁market	-8.51522
▁issue	-8.51537
k	-8.51678
▁history	-8.52015
▁non	-8.52339
▁month	-8.52341
▁party	-8.52501
▁thought	-8.52687
▁yet	-8.53041
▁result	-8.53172
▁once	-8.53195
▁side	-8.53199
▁asked	-8.53371
▁deal	-8.53797
▁following	-8.53857
▁believe	-8.53949
▁project	-8.54002
▁together	-8.54264
▁However	-8.54486
▁young	-8.54509
▁night	-8.54511
▁kind	-8.54528
▁clear	-8.5459
▁news	-8.54743
▁across	-8.54997
▁love	-8.55115
▁ago	-8.55262
▁members	-8.5549
▁local	-8.55693
▁health	-8.55857
▁wanted	-8.55867
▁comes	-8.56302
▁recent	-8.56451
old	-8.56713
▁R	-8.56728
▁almost	-8.56796
▁added	-8.57211
to	-8.57321
▁old	-8.5775
▁behind	-8.58082
▁major	-8.58126
▁started	-8.58199
the	-8.58326
▁area	-8.5853
▁makes	-8.58647
▁F	-8.58807
▁am	-8.58836
▁based	-8.58909
▁isn	-8.59316
▁available	-8.59396
▁looking	-8.59822
▁war	-8.60265
▁idea	-8.60632
▁post	-8.60746
▁N	-8.61153
▁level	-8.61545
ers	-8.61645
▁single	-8.61734
▁15	-8.62065
▁security	-8.62079
▁move	-8.62088
▁anything	-8.62503
▁research	-8.62877
▁list	-8.63058
▁trying	-8.63172
▁rather	-8.63186
▁12	-8.63204
▁live	-8.63206
▁6	-8.6327
able	-8.6328
▁saying	-8.63464
h	-8.63506
▁someone	-8.639
▁try	-8.64151
▁book	-8.64175
p	-8.64221
▁Clinton	-8.64924
man	-8.64966
▁policy	-8.6525
▁series	-8.65273
▁player	-8.65506
▁question	-8.65823
▁human	-8.66109
▁form	-8.66265
▁bit	-8.66335
espite	-8.66685
▁experience	-8.66796
▁care	-8.66873
▁taken	-8.67035
▁close	-8.67058
▁current	-8.67246
▁death	-8.6731
▁taking	-8.67383
(	-8.675
▁points	-8.67831
▁similar	-8.67844
▁car	-8.67931
▁G	-8.68616
▁National	-8.69216
▁pay	-8.69251
▁:	-8.6947
se	-8.69512
▁half	-8.6955
▁six	-8.69788
▁read	-8.70158
▁Now	-8.70243
▁probably	-8.70251
▁view	-8.70272
▁program	-8.7049
▁final	-8.70681
▁wrote	-8.70748
en	-8.70913
▁office	-8.70946
▁themselves	-8.70983
▁hand	-8.71156
▁statement	-8.71236
▁job	-8.71322
▁create	-8.71715
▁companies	-8.71723
▁national	-8.71825
▁attack	-8.71916
▁North	-8.71995
▁everything	-8.72222
▁release	-8.72253
▁plan	-8.72267
▁space	-8.73298
▁federal	-8.73473
▁Twitter	-8.73493
▁access	-8.73703
▁matter	-8.7375
▁study	-8.73773
▁due	-8.73776
▁military	-8.73997
▁O	-8.7413
R	-8.74316
▁These	-8.74386
▁South	-8.74531
▁City	-8.74788
▁film	-8.75059
▁version	-8.75316
an	-8.75334
▁decision	-8.75551
▁2014	-8.75598
▁win	-8.7564
▁How	-8.75832
▁released	-8.75833
▁either	-8.75862
We	-8.75928
▁needs	-8.75962
▁further	-8.76288
▁court	-8.76293
▁pretty	-8.76296
▁Washington	-8.76309
▁wasn	-8.76547
▁nothing	-8.76567
▁however	-8.76578
▁officials	-8.76583
▁low	-8.77302
▁Google	-8.77354
▁/	-8.77539
▁third	-8.77954
▁coming	-8.78001
▁service	-8.78249
▁states	-8.78294
▁mean	-8.78424
▁face	-8.78523
▁seems	-8.78744
▁short	-8.78772
▁return	-8.78786
▁My	-8.78905
us	-8.78917
g	-8.79063
▁action	-8.79121
▁issues	-8.7923
▁tell	-8.79406
▁himself	-8.79457
▁China	-8.79534
▁evidence	-8.79994
▁8	-8.80023
▁position	-8.80209
▁whole	-8.80392
▁30	-8.80406
▁7	-8.80422
▁body	-8.8057
▁outside	-8.80841
▁value	-8.80946
▁above	-8.81072
▁provide	-8.81146
▁May	-8.81336
▁saw	-8.81388
▁World	-8.81641
▁By	-8.8171
▁reason	-8.81973
://	-8.82165
▁became	-8.82167
▁An	-8.82274
▁Some	-8.83006
▁light	-8.83028
▁building	-8.83034
▁development	-8.83215
▁hit	-8.8339
▁food	-8.83453
▁itself	-8.83563
▁near	-8.83701
▁main	-8.83719
▁began	-8.83866
▁below	-8.83892
▁late	-8.83941
▁rights	-8.8395
▁role	-8.8426
▁March	-8.84413
▁His	-8.84416
up	-8.84516
▁simply	-8.8467
▁Facebook	-8.84968
▁front	-8.84994
▁L	-8.85046
M	-8.85435
▁services	-8.85444
▁election	-8.85495
▁test	-8.85695
▁include	-8.85721
▁sense	-8.85812
▁9	-8.86191
▁continue	-8.86306
▁played	-8.86452
▁bad	-8.86895
▁white	-8.86924
▁industry	-8.86956
▁White	-8.86979
It	-8.87396
▁11	-8.87556
ic	-8.87782
▁forward	-8.87817
▁recently	-8.87996
▁event	-8.88063
▁W	-8.8811
▁stop	-8.88299
▁economic	-8.88341
▁minutes	-8.88539
▁cost	-8.88541
▁black	-8.88593
▁hours	-8.88635
▁weeks	-8.88931
▁needed	-8.89091
▁turn	-8.89397
▁tax	-8.89493
▁Not	-8.89583
▁lost	-8.89607
▁especially	-8.89614
▁H	-8.89687
▁build	-8.89869
▁everyone	-8.89896
▁running	-8.8992
▁woman	-8.89922
▁countries	-8.90478
▁rate	-8.90708
▁quite	-8.90809
▁general	-8.90843
▁common	-8.90969
▁Department	-8.91078
▁held	-8.91111
▁room	-8.91407
▁official	-8.91539
▁account	-8.91759
▁strong	-8.9181
▁users	-8.91972
▁potential	-8.92174
▁More	-8.92207
▁shows	-8.92305
▁playing	-8.92517
▁online	-8.9253
▁attempt	-8.92565
▁special	-8.92589
▁anti	-8.92799
▁announced	-8.92974
▁longer	-8.93088
▁talk	-8.9313
▁results	-8.93227
▁Here	-8.93252
▁students	-8.93675
▁created	-8.93862
T	-8.93869
▁received	-8.9404
▁average	-8.94047
P	-8.94203
▁J	-8.94293
▁words	-8.94506
▁director	-8.94675
▁energy	-8.94787
▁groups	-8.9499
▁technology	-8.95077
▁K	-8.95506
▁certain	-8.95581
▁music	-8.95589
▁price	-8.95654
▁else	-8.95695
▁class	-8.95702
▁content	-8.95709
▁June	-8.95722
▁share	-8.95771
▁private	-8.95904
▁soon	-8.96231
▁personal	-8.96267
▁Republican	-8.96373
▁http	-8.96451
▁lead	-8.96468
▁design	-8.96506
▁total	-8.96627
▁St	-8.96634
▁i	-8.96669
▁mind	-8.96707
▁record	-8.96853
▁18	-8.96875
▁co	-8.96996
▁fight	-8.9711
▁model	-8.97264
▁West	-8.97652
▁original	-8.97824
▁code	-8.97939
▁2016	-8.98513
▁entire	-8.98762
▁bring	-8.98834
▁chance	-8.98942
▁Even	-8.98983
▁source	-8.99092
▁workers	-8.99202
▁site	-8.99213
▁vote	-8.99316
▁email	-8.99321
▁anyone	-8.9946
▁instead	-8.99616
▁oil	-8.99678
▁al	-8.9987
▁add	-9.00065
▁earlier	-9.00206
▁cannot	-9.00272
▁true	-9.00551
ce	-9.00815
▁fans	-9.00835
▁child	-9.00912
▁international	-9.01078
▁July	-9.01237
▁killed	-9.01327
▁January	-9.01555
▁2015	-9.02011
▁nearly	-9.02016
▁shot	-9.02086
▁difficult	-9.02096
▁ways	-9.02245
▁age	-9.02375
▁key	-9.02431
▁article	-9.02648
▁higher	-9.02695
▁14	-9.02768
▁Europe	-9.02864
▁ground	-9.02935
time	-9.03021
▁situation	-9.03269
▁investigation	-9.03317
▁inside	-9.03332
▁billion	-9.03362
▁increase	-9.03402
▁Tuesday	-9.03557
▁character	-9.03654
▁25	-9.03697
▁ability	-9.03839
▁bill	-9.03956
▁goal	-9.03999
▁understand	-9.04218
ion	-9.0423
▁April	-9.04252
▁Friday	-9.04258
▁fire	-9.04459
▁#	-9.04675
▁News	-9.04718
▁lower	-9.04756
▁Monday	-9.04936
▁True	-9.04963
▁amount	-9.05274
▁interest	-9.05404
▁response	-9.05432
▁friends	-9.05513
▁hope	-9.05591
▁house	-9.05603
▁self	-9.05625
▁wrong	-9.05723
▁led	-9.05724
▁currently	-9.05824
based	-9.0589
▁easy	-9.05979
▁approach	-9.06338
▁stay	-9.06392
▁risk	-9.06411
▁moment	-9.06462
▁changes	-9.06506
▁happened	-9.06577
▁published	-9.06725
▁race	-9.06747
B	-9.0685
▁According	-9.06903
▁expected	-9.06908
▁type	-9.06997
▁Sunday	-9.07162
▁decided	-9.0718
▁leave	-9.07184
▁performance	-9.07201
▁Israel	-9.07298
▁Canada	-9.07398
▁air	-9.07457
▁phone	-9.07574
▁cut	-9.07669
u	-9.08067
▁field	-9.0807
▁UK	-9.08181
▁terms	-9.08548
▁e	-9.09022
▁San	-9.09112
▁2011	-9.09133
▁Wednesday	-9.09166
▁living	-9.09175
▁rest	-9.09253
▁movement	-9.09362
▁push	-9.09375
▁August	-9.09504
▁plans	-9.09528
▁God	-9.09785
▁50	-9.0984
▁September	-9.09898
▁Why	-9.0997
▁simple	-9.10009
▁hold	-9.10289
▁administration	-9.10429
▁sent	-9.10444
▁particular	-9.10485
▁career	-9.10535
K	-9.10604
▁gave	-9.1062
▁present	-9.10664
▁13	-9.10747
▁November	-9.10993
▁16	-9.1113
▁cover	-9.11132
▁Russia	-9.11321
▁brought	-9.11345
▁son	-9.11576
▁European	-9.11591
▁Of	-9.11603
▁financial	-9.11607
▁Americans	-9.11748
▁problems	-9.1188
▁happen	-9.11967
▁David	-9.12128
▁takes	-9.12308
▁effect	-9.12329
▁teams	-9.12494
▁guy	-9.12729
▁foreign	-9.12826
▁various	-9.12829
G	-9.12962
as	-9.13068
▁legal	-9.13072
▁meeting	-9.13084
▁California	-9.13096
▁address	-9.1317
▁questions	-9.13336
▁n	-9.13472
▁Party	-9.1362
▁step	-9.13624
▁language	-9.13891
▁popular	-9.13958
▁worked	-9.13997
▁goes	-9.14109
▁significant	-9.14222
▁seem	-9.14263
▁knew	-9.14336
▁reports	-9.14451
▁term	-9.1486
▁allowed	-9.14951
▁heard	-9.15005
▁trade	-9.1506
▁TV	-9.15182
▁turned	-9.15468
ial	-9.15508
de	-9.15642
▁works	-9.157
▁areas	-9.15851
▁December	-9.15873
▁couple	-9.15881
▁receive	-9.15951
▁Times	-9.16128
▁Senate	-9.16261
▁tried	-9.16266
▁cases	-9.16389
▁quickly	-9.16708
▁events	-9.16778
▁figure	-9.16963
da	-9.17083
▁word	-9.17101
▁wants	-9.17456
E	-9.17479
▁global	-9.17565
▁network	-9.17667
▁Street	-9.17819
▁Congress	-9.17888
▁Dr	-9.17981
▁lives	-9.18005
▁Thursday	-9.18205
▁forces	-9.18248
▁image	-9.18569
▁Paul	-9.18675
▁sex	-9.18742
ness	-9.18838
▁X	-9.18988
▁latest	-9.1903
▁From	-9.19065
▁via	-9.19097
▁movie	-9.19363
▁felt	-9.19424
▁built	-9.19436
▁involved	-9.1945
▁board	-9.19818
▁Then	-9.20103
▁website	-9.20148
▁page	-9.20255
▁answer	-9.20293
▁press	-9.20326
▁practice	-9.20557
▁society	-9.20616
▁production	-9.20642
▁sign	-9.20725
▁sometimes	-9.20736
▁summer	-9.21013
▁cause	-9.21135
est	-9.2118
▁force	-9.21364
▁October	-9.21436
▁staff	-9.21465
▁population	-9.21807
▁economy	-9.2182
▁specific	-9.2184
less	-9.21849
ca	-9.21888
▁offer	-9.22052
am	-9.22083
▁Court	-9.22227
▁pick	-9.22329
▁impact	-9.22333
▁2017	-9.22525
▁British	-9.22643
▁Democratic	-9.2266
▁War	-9.22885
...	-9.22893
▁lack	-9.2301
▁huge	-9.23076
ad	-9.23117
le	-9.23153
▁numbers	-9.23153
▁100	-9.2326
▁talking	-9.2328
▁period	-9.23453
▁mother	-9.23479
▁Since	-9.23499
▁range	-9.23512
▁leader	-9.23548
N	-9.23576
▁parents	-9.23731
▁Most	-9.23809
▁opportunity	-9.23886
▁spent	-9.23898
▁Texas	-9.23914
▁biggest	-9.24326
▁looks	-9.24545
▁interview	-9.24687
▁Center	-9.24701
▁Do	-9.24716
▁focus	-9.24729
out	-9.24861
▁worth	-9.25094
▁father	-9.25138
▁Saturday	-9.25156
▁follow	-9.25274
▁ask	-9.25325
▁rules	-9.25488
▁Let	-9.25521
▁send	-9.25568
▁nation	-9.2557
▁paper	-9.25593
▁First	-9.25625
▁reach	-9.25658
ous	-9.25747
▁medical	-9.25872
▁learn	-9.25898
▁continued	-9.25967
▁seven	-9.26037
▁Russian	-9.26125
▁training	-9.26217
▁included	-9.26409
▁James	-9.2643
▁defense	-9.26477
▁Many	-9.2652
ity	-9.26637
▁pre	-9.26682
▁break	-9.2674
▁upon	-9.26888
▁particularly	-9.27014
▁education	-9.2725
L	-9.27426
▁success	-9.27627
▁morning	-9.27721
▁sexual	-9.27821
▁member	-9.27865
▁individual	-9.28072
▁chief	-9.28187
▁expect	-9.28336
▁previous	-9.2846
▁serious	-9.28461
▁hear	-9.2855
▁multiple	-9.28593
▁Police	-9.29055
▁product	-9.29086
▁looked	-9.29173
of	-9.29198
▁size	-9.29477
▁exactly	-9.29505
▁Black	-9.29506
▁complete	-9.29555
▁title	-9.29729
▁round	-9.29754
▁2012	-9.29775
▁India	-9.29883
▁Donald	-9.2994
▁watch	-9.29951
▁although	-9.29977
▁effort	-9.29988
▁interesting	-9.30058
▁r	-9.30104
▁remains	-9.3022
20	-9.30328
▁meet	-9.30372
▁climate	-9.30378
▁V	-9.30431
▁fun	-9.30445
▁showed	-9.30451
▁19	-9.30511
▁leading	-9.30557
▁pressure	-9.30566
▁features	-9.3057
▁levels	-9.30618
▁toward	-9.30731
▁debate	-9.30777
▁standard	-9.30787
▁attention	-9.30809
▁message	-9.30909
▁piece	-9.30962
▁County	-9.31254
▁eight	-9.3126
▁jobs	-9.31278
▁growth	-9.31317
z	-9.31336
▁Our	-9.3141
▁systems	-9.31465
F	-9.31514
ation	-9.31604
▁gun	-9.31655
▁details	-9.31666
▁throughout	-9.3176
▁avoid	-9.31924
▁sort	-9.32169
ac	-9.32186
▁completely	-9.32297
▁heart	-9.3231
▁starting	-9.32424
▁died	-9.32506
▁stories	-9.32606
▁Al	-9.32733
▁act	-9.32858
be	-9.32896
▁changed	-9.32978
▁London	-9.33055
▁majority	-9.33088
▁computer	-9.332
▁land	-9.33301
▁claim	-9.33374
▁check	-9.33428
▁material	-9.33655
▁24	-9.3391
▁quality	-9.34097
▁includes	-9.34162
▁remain	-9.34316
▁speech	-9.34412
▁East	-9.3442
▁friend	-9.34454
▁relationship	-9.34594
▁described	-9.34632
▁finally	-9.34685
▁40	-9.34846
▁date	-9.34853
▁February	-9.34931
▁cent	-9.35226
▁products	-9.35306
ee	-9.35441
▁gas	-9.35634
▁wife	-9.3588
▁calls	-9.36002
▁certainly	-9.36037
▁...	-9.36122
▁user	-9.36208
▁file	-9.36291
▁violence	-9.36343
▁powerful	-9.36376
O	-9.36398
▁2013	-9.36621
▁function	-9.36658
▁met	-9.36706
▁center	-9.36757
▁beyond	-9.36798
▁officers	-9.36986
▁stand	-9.37003
▁software	-9.37275
▁addition	-9.37331
▁sound	-9.37374
▁costs	-9.37397
▁art	-9.37425
▁science	-9.37463
▁ready	-9.37495
▁choice	-9.37507
▁Well	-9.37728
▁store	-9.37762
▁eyes	-9.37802
▁writing	-9.37822
J	-9.38016
▁17	-9.38024
▁drug	-9.38036
▁hands	-9.3823
▁immediately	-9.3828
▁written	-9.38304
▁considered	-9.38474
▁app	-9.38529
▁fall	-9.38575
▁unique	-9.38726
▁reality	-9.38743
▁leaders	-9.38744
▁c	-9.38777
This	-9.38879
▁guys	-9.38882
▁thinking	-9.38904
▁Star	-9.3892
▁claims	-9.39066
like	-9.3919
▁League	-9.3921
▁21	-9.39248
ba	-9.39253
▁Park	-9.39288
by	-9.39391
▁subject	-9.39407
▁pass	-9.39461
▁George	-9.39725
▁town	-9.39796
▁reading	-9.39797
▁college	-9.39896
ist	-9.39938
▁Act	-9.39942
▁Re	-9.40022
▁growing	-9.40057
▁yourself	-9.40186
▁pro	-9.40188
▁Although	-9.40197
▁overall	-9.40215
▁spend	-9.40233
10	-9.40249
▁aren	-9.40267
▁match	-9.40308
ea	-9.40326
▁prevent	-9.40386
▁appears	-9.404
▁voice	-9.40414
▁culture	-9.40424
ies	-9.40434
=	-9.40474
▁Council	-9.40668
06	-9.40687
▁German	-9.40822
▁coach	-9.40891
▁student	-9.40922
▁letter	-9.40951
▁voters	-9.40959
▁modern	-9.41024
▁Dur	-9.41115
▁kids	-9.41141
▁Apple	-9.41212
▁executive	-9.41413
▁required	-9.41419
H	-9.41454
▁o	-9.41477
▁natural	-9.41631
▁additional	-9.41758
▁directly	-9.41759
▁club	-9.4193
▁contract	-9.42071
▁provided	-9.42165
▁base	-9.42203
▁manager	-9.42444
▁Post	-9.42452
▁wide	-9.4252
▁Democrats	-9.42584
▁Bill	-9.42622
▁Just	-9.42647
▁programs	-9.42718
▁usually	-9.42735
▁Don	-9.4276
▁star	-9.42833
▁gone	-9.42923
side	-9.42926
▁employees	-9.43114
01	-9.43129
▁moved	-9.43306
▁loss	-9.43306
▁feature	-9.43341
▁buy	-9.43349
▁ideas	-9.43491
.)	-9.4351
▁Michael	-9.43697
▁appear	-9.43721
▁paid	-9.43751
▁road	-9.44002
▁individuals	-9.44121
▁nature	-9.44195
▁giving	-9.44208
v	-9.44554
▁eventually	-9.44709
▁happy	-9.44712
▁attacks	-9.44716
07	-9.44727
▁century	-9.44812
▁football	-9.44905
▁developed	-9.44909
▁Last	-9.44993
▁battle	-9.45
▁followed	-9.45033
ff	-9.45055
▁property	-9.45225
▁Like	-9.4527
00000000000	-9.45394
▁protect	-9.45421
▁comments	-9.45426
▁threat	-9.45509
▁budget	-9.45558
▁2009	-9.45625
▁increased	-9.45633
30	-9.45711
▁comment	-9.45728
▁status	-9.45849
▁rise	-9.45939
▁scene	-9.4604
el	-9.46074
▁track	-9.46222
▁spending	-9.46274
▁perhaps	-9.46284
▁parts	-9.46353
▁save	-9.46608
▁gets	-9.46616
▁officer	-9.46644
▁wouldn	-9.46674
▁safety	-9.46816
▁note	-9.4697
▁De	-9.4711
▁goals	-9.47126
▁benefit	-9.4713
▁begin	-9.47157
▁towards	-9.47202
▁Chicago	-9.47251
▁Australia	-9.47268
▁analysis	-9.47317
▁Chinese	-9.47334
▁agency	-9.47336
▁moving	-9.47401
▁limited	-9.47497
ive	-9.47601
▁senior	-9.47628
▁candidate	-9.47643
▁safe	-9.47726
▁Republicans	-9.47804
▁beginning	-9.47832
▁stuff	-9.47863
▁politics	-9.47879
▁damage	-9.47903
▁$	-9.48024
▁environment	-9.48035
▁write	-9.48186
▁General	-9.48309
▁intelligence	-9.48391
▁launch	-9.48407
▁maybe	-9.48447
▁La	-9.48488
▁region	-9.48493
it	-9.48576
▁conditions	-9.48591
▁screen	-9.48607
▁efforts	-9.48802
▁designed	-9.48867
▁Minister	-9.48909
▁nuclear	-9.48956
▁alone	-9.4896
▁previously	-9.49073
▁thousands	-9.49351
▁Because	-9.49512
▁compared	-9.4952
▁contact	-9.49543
▁review	-9.49571
▁consider	-9.49593
▁card	-9.49648
▁Your	-9.4975
▁2008	-9.49839
term	-9.49883
ism	-9.49896
▁demand	-9.49921
▁speed	-9.49942
▁myself	-9.49981
▁English	-9.50005
▁couldn	-9.50012
▁largest	-9.50117
▁wear	-9.50193
▁reasons	-9.50278
▁choose	-9.50338
▁Internet	-9.5052
▁projects	-9.50533
▁Sanders	-9.5054
is	-9.50569
▁ahead	-9.50576
te	-9.50718
▁regard	-9.50796
▁independent	-9.50835
▁dead	-9.50837
▁Iran	-9.50856
▁gives	-9.50999
03	-9.51053
▁negative	-9.51082
▁Instead	-9.51084
▁species	-9.51087
▁charge	-9.51094
▁influence	-9.51295
▁Co	-9.51301
▁Advertisement	-9.51455
▁King	-9.51487
▁physical	-9.51493
▁central	-9.51624
hose	-9.51883
▁adding	-9.51983
▁text	-9.52029
▁middle	-9.522
▁stage	-9.52364
▁target	-9.52429
▁books	-9.52471
ary	-9.52582
▁organization	-9.52618
▁league	-9.52635
▁Union	-9.52676
▁fast	-9.52761
▁option	-9.52887
▁civil	-9.52974
▁characters	-9.53095
▁crime	-9.53166
▁related	-9.5317
▁fully	-9.53198
▁necessary	-9.53289
▁religious	-9.53322
▁capital	-9.53452
at	-9.53534
▁successful	-9.53722
▁device	-9.53724
cc	-9.53728
▁Or	-9.53753
▁positive	-9.53759
▁families	-9.53846
▁extra	-9.53851
▁primary	-9.53855
▁Great	-9.53867
▁calling	-9.54005
▁credit	-9.54012
▁Mark	-9.54054
▁remember	-9.54101
▁favorite	-9.54286
▁studies	-9.54409
▁bank	-9.5443
▁behavior	-9.54446
▁f	-9.54555
15	-9.54747
ssociated	-9.54756
▁seeing	-9.54885
▁France	-9.5503
▁People	-9.55063
);	-9.55234
▁traditional	-9.55263
▁Yes	-9.55267
▁rule	-9.55376
16	-9.55401
▁named	-9.55412
▁conference	-9.55447
▁blood	-9.55556
▁bottom	-9.55593
".	-9.55678
▁22	-9.55685
▁posted	-9.55687
▁wait	-9.55759
fe	-9.55783
▁funding	-9.55836
▁red	-9.5595
fa	-9.55984
▁shooting	-9.56244
▁agree	-9.56309
▁explain	-9.56342
▁researchers	-9.56371
▁passed	-9.5645
▁provides	-9.56469
▁sold	-9.56781
▁criminal	-9.56928
▁minister	-9.57175
▁signed	-9.5721
▁host	-9.57225
▁Hillary	-9.57332
▁helped	-9.57479
▁challenge	-9.57488
▁firm	-9.5765
▁search	-9.57723
▁effective	-9.57759
▁application	-9.57785
▁girl	-9.57822
▁French	-9.57864
w	-9.57895
▁Another	-9.579
co	-9.57906
02	-9.57938
▁table	-9.57965
▁Germany	-9.5799
▁web	-9.58072
▁drive	-9.58093
▁Day	-9.58099
00	-9.58362
▁School	-9.58378
▁difference	-9.5838
▁weapons	-9.58439
▁v	-9.58463
40	-9.58502
▁Read	-9.58508
▁Best	-9.58532
▁failed	-9.58564
▁whom	-9.58589
ab	-9.58739
▁appeared	-9.58784
In	-9.58795
▁regular	-9.58911
▁Syria	-9.59009
▁Also	-9.59069
▁eye	-9.59132
ie	-9.59194
11	-9.59227
▁effects	-9.59282
▁shown	-9.59289
▁improve	-9.59369
▁visit	-9.59406
▁2010	-9.59529
▁poor	-9.59532
▁schools	-9.59652
▁knowledge	-9.59655
▁opening	-9.60018
▁ended	-9.6002
▁Japan	-9.6019
▁Korea	-9.60205
▁Brown	-9.60216
▁Committee	-9.60241
▁International	-9.60265
▁Once	-9.60313
▁box	-9.60403
▁income	-9.60415
▁sales	-9.60542
▁lines	-9.60554
▁customers	-9.6081
?"	-9.60824
▁Press	-9.6086
▁highly	-9.60902
▁feet	-9.6092
▁60	-9.61043
▁deep	-9.61275
▁ensure	-9.6131
bb	-9.61532
▁highest	-9.6156
▁color	-9.61583
W	-9.61791
▁claimed	-9.61833
▁records	-9.62015
▁learning	-9.62133
▁greater	-9.62329
▁decades	-9.6238
▁die	-9.62548
▁female	-9.62649
▁Institute	-9.6268
▁creating	-9.62706
▁Un	-9.62831
▁Big	-9.63073
▁citizens	-9.63107
▁nice	-9.63205
▁secret	-9.63274
▁easily	-9.63298
▁kept	-9.63308
▁revealed	-9.63412
▁EU	-9.63445
bc	-9.63451
▁charges	-9.63468
▁continues	-9.63517
ec	-9.63554
▁Go	-9.63638
▁existing	-9.63675
▁haven	-9.63722
▁style	-9.63774
▁actual	-9.63783
▁patients	-9.63918
▁Other	-9.63924
▁daily	-9.63938
▁Follow	-9.63945
▁Islamic	-9.63968
▁author	-9.64143
ma	-9.64249
▁laws	-9.64405
▁digital	-9.64406
▁illegal	-9.64415
▁fine	-9.64509
▁victory	-9.64539
▁crisis	-9.64544
▁Earth	-9.64557
▁Mike	-9.64592
ton	-9.6472
▁apply	-9.64839
▁fit	-9.6484
▁join	-9.64886
no	-9.65051
▁sources	-9.65068
▁uses	-9.65102
▁reduce	-9.65104
▁straight	-9.65144
▁Florida	-9.65178
▁Ryan	-9.65187
▁station	-9.65216
▁brain	-9.65225
▁Two	-9.6523
▁Muslim	-9.65231
60	-9.65408
▁ball	-9.65489
▁values	-9.65549
▁direct	-9.65553
▁caused	-9.65579
▁dark	-9.65756
▁wish	-9.65769
▁television	-9.65801
day	-9.65835
▁platform	-9.65856
▁runs	-9.65889
▁x	-9.65934
▁benefits	-9.66039
▁fighting	-9.6609
▁concerns	-9.66166
▁mostly	-9.66173
▁link	-9.663
▁incident	-9.66397
▁places	-9.66524
▁larger	-9.66573
▁winning	-9.66597
▁sell	-9.66698
▁picture	-9.66844
▁actions	-9.66883
▁door	-9.66884
00000000	-9.66952
72	-9.66961
▁critical	-9.67
▁Red	-9.67035
ae	-9.67052
▁Smith	-9.67075
▁traffic	-9.67076
▁supposed	-9.67233
▁offers	-9.67265
▁active	-9.67362
75	-9.67413
▁thus	-9.67723
ar	-9.67757
▁committee	-9.67761
▁mid	-9.67801
▁floor	-9.67842
▁hot	-9.67844
▁devices	-9.67869
▁entirely	-9.67975
▁hair	-9.67983
▁truth	-9.68038
▁Image	-9.68132
▁showing	-9.68147
▁la	-9.68185
▁forced	-9.68186
▁weight	-9.68299
▁normal	-9.68318
▁Bay	-9.68356
▁management	-9.68388
▁super	-9.68417
▁agreement	-9.68422
ia	-9.68429
50	-9.68465
ally	-9.68489
▁speak	-9.6854
▁maintain	-9.68558
▁raised	-9.68626
▁mass	-9.68756
▁1,	-9.68847
▁meant	-9.68856
▁activity	-9.69038
▁Bush	-9.69051
▁weekend	-9.69062
▁ones	-9.69079
▁method	-9.69112
▁street	-9.69129
ta	-9.69134
▁walk	-9.69149
▁authorities	-9.69236
▁carry	-9.69252
▁becomes	-9.69259
off	-9.69324
▁offered	-9.69474
▁Q	-9.69475
▁map	-9.69492
▁seemed	-9.69511
▁shared	-9.69625
▁grow	-9.69677
▁Government	-9.69691
▁Johnson	-9.69716
▁Both	-9.69741
▁nine	-9.69743
▁Today	-9.69772
▁whatever	-9.6982
putting	-9.69846
▁options	-9.69853
▁understanding	-9.69902
▁explained	-9.69998
▁resources	-9.70077
05	-9.70081
▁reached	-9.70106
▁require	-9.7021
▁perfect	-9.70213
▁interested	-9.70227
66	-9.70317
▁prices	-9.7033
▁lose	-9.70402
▁Microsoft	-9.70407
▁treatment	-9.70415
▁etc	-9.70468
▁investment	-9.7047
▁Israeli	-9.70535
17	-9.70682
▁Can	-9.7078
▁serve	-9.70782
▁professional	-9.70958
▁housing	-9.71011
▁Security	-9.7102
▁album	-9.71082
▁Canadian	-9.7113
▁fan	-9.71205
cd	-9.7123
af	-9.71307
▁types	-9.7134
▁contain	-9.71453
▁meaning	-9.71466
ment	-9.71487
fb	-9.71546
▁Office	-9.71561
▁Green	-9.71621
▁gold	-9.71651
▁Health	-9.71703
▁prison	-9.71705
▁measure	-9.7172
▁catch	-9.71721
▁opinion	-9.71778
▁conservative	-9.71806
▁miles	-9.71943
ef	-9.71945
cf	-9.71966
▁feeling	-9.72002
V	-9.72127
18	-9.72139
▁request	-9.72192
▁confirmed	-9.7247
▁closed	-9.72489
▁section	-9.72532
▁holding	-9.72583
▁boy	-9.72614
▁Their	-9.72644
▁south	-9.7271
▁documents	-9.72731
▁core	-9.72742
ever	-9.72777
▁Man	-9.72815
12	-9.72832
▁pull	-9.72854
▁judge	-9.72879
▁band	-9.72904
▁policies	-9.73038
aa	-9.73043
45	-9.73054
bd	-9.73085
▁basic	-9.73123
▁partner	-9.73187
▁mission	-9.73189
47	-9.73196
▁animals	-9.73218
26	-9.73309
▁operations	-9.73353
74	-9.73364
29	-9.73388
▁Chris	-9.73627
▁millions	-9.7367
▁beautiful	-9.73741
▁crowd	-9.73787
▁26	-9.73792
▁photo	-9.73817
▁happens	-9.73983
X	-9.74075
08	-9.74234
▁represent	-9.74255
▁song	-9.74262
▁requires	-9.74346
▁bar	-9.74377
34	-9.74384
▁draft	-9.74435
▁proposed	-9.7444
▁Western	-9.74454
▁dollars	-9.74455
▁noted	-9.74458
▁Cup	-9.74542
▁agreed	-9.74746
04	-9.74904
▁23	-9.75026
▁complex	-9.75049
▁Justice	-9.75109
▁strategy	-9.7511
eb	-9.75169
▁accused	-9.75187
▁See	-9.75198
▁girls	-9.75204
▁extremely	-9.7521
▁banks	-9.75255
▁freedom	-9.75262
▁fear	-9.75428
j	-9.75651
▁Who	-9.75658
▁b	-9.75668
▁massive	-9.75716
▁activities	-9.7581
▁marijuana	-9.7581
▁leadership	-9.75811
▁internet	-9.75822
▁accounts	-9.759
▁kill	-9.75905
▁conflict	-9.75951
▁marriage	-9.75964
▁believed	-9.76004
24	-9.76044
37	-9.76114
71	-9.76272
▁worse	-9.76394
▁path	-9.76479
▁Africa	-9.76482
▁GOP	-9.76513
▁Jones	-9.7652
▁insurance	-9.76526
▁believes	-9.76529
13	-9.76559
▁views	-9.766
▁Christian	-9.76606
▁28	-9.76607
▁Please	-9.76633
▁hospital	-9.76662
▁department	-9.76664
▁audience	-9.76665
▁machine	-9.76696
▁quick	-9.76706
▁smaller	-9.76726
cb	-9.76801
▁initial	-9.7683
▁opened	-9.76953
ian	-9.76999
▁respect	-9.77032
▁structure	-9.77128
▁memory	-9.77242
▁develop	-9.77257
▁drop	-9.77349
25	-9.77357
▁competition	-9.77365
▁spot	-9.77375
▁discussion	-9.77398
▁names	-9.77423
▁male	-9.77433
▁fourth	-9.7744
▁mentioned	-9.77518
▁charged	-9.77605
▁clearly	-9.77654
▁residents	-9.77696
▁standards	-9.7779
▁II	-9.77878
▁brand	-9.77892
org	-9.77907
▁Her	-9.77925
▁Foundation	-9.77935
▁church	-9.77938
▁multi	-9.77942
▁College	-9.77943
▁images	-9.78052
56	-9.78099
▁asking	-9.78138
▁cards	-9.7821
14	-9.78215
63	-9.78369
19	-9.78376
▁aware	-9.785
▁providing	-9.78654
▁supply	-9.78702
▁parties	-9.78739
▁Wall	-9.78829
▁organizations	-9.78837
▁Los	-9.78986
son	-9.79007
▁Up	-9.79035
▁learned	-9.79123
▁cool	-9.79165
▁produce	-9.79279
51	-9.79325
▁Iraq	-9.79352
▁communities	-9.79379
▁cities	-9.79381
▁THE	-9.79384
▁leaving	-9.79387
dc	-9.79388
53	-9.79417
▁debt	-9.79549
▁conversation	-9.79577
▁plant	-9.79623
▁Robert	-9.79645
▁ice	-9.79647
▁deliver	-9.79708
▁onto	-9.79732
▁scientists	-9.79802
▁typical	-9.79957
▁items	-9.79997
▁Martin	-9.80053
▁easier	-9.80108
▁knows	-9.80189
▁Over	-9.80196
Y	-9.80287
db	-9.80484
bf	-9.80523
▁hour	-9.80551
▁tend	-9.80637
▁born	-9.80688
▁presence	-9.80844
55	-9.80846
▁Carolina	-9.80853
▁false	-9.80877
▁useful	-9.80951
▁quarter	-9.81062
▁vehicle	-9.81083
line	-9.81213
▁generation	-9.81221
64	-9.81231
▁skills	-9.81335
▁travel	-9.81411
▁dangerous	-9.81479
un	-9.81509
▁Still	-9.81598
▁FBI	-9.81603
▁cast	-9.81639
▁blog	-9.81647
▁sports	-9.81736
df	-9.81798
▁professor	-9.81803
▁candidates	-9.81858
▁touch	-9.82056
▁sea	-9.82168
▁notes	-9.82185
id	-9.82199
31	-9.82252
23	-9.82328
▁mobile	-9.82359
▁Windows	-9.82383
▁count	-9.82453
▁prove	-9.82481
▁Le	-9.82509
land	-9.82542
▁vs	-9.82545
▁established	-9.82558
▁argument	-9.82596
▁protection	-9.82599
▁trial	-9.82621
▁spoke	-9.8267
▁border	-9.82702
▁Time	-9.82802
▁please	-9.82943
62	-9.82962
▁Photo	-9.8297
▁tool	-9.82976
▁l	-9.82999
▁raise	-9.83094
▁NFL	-9.831
▁Peter	-9.83104
84	-9.83142
▁losing	-9.83165
▁older	-9.83315
▁concept	-9.83334
▁episode	-9.83343
▁African	-9.83348
▁joined	-9.83415
▁ban	-9.83712
▁Tom	-9.83717
▁block	-9.83753
44	-9.83773
fd	-9.83837
▁Club	-9.83853
▁Law	-9.83909
▁Fox	-9.83921
▁Every	-9.83932
▁background	-9.8409
▁religion	-9.84105
▁task	-9.84121
▁daughter	-9.84123
77	-9.84197
▁driver	-9.84224
▁supporters	-9.84243
▁willing	-9.84273
▁Pro	-9.84336
▁affect	-9.84342
▁High	-9.8438
ized	-9.84392
▁telling	-9.84399
21	-9.84512
dd	-9.84573
▁surface	-9.84587
▁Association	-9.84603
▁theory	-9.84614
▁fell	-9.84635
▁starts	-9.84659
▁27	-9.84785
▁Air	-9.84804
▁collection	-9.84886
▁Be	-9.84892
▁separate	-9.8501
▁1.	-9.85046
▁drugs	-9.85069
▁net	-9.85102
▁Under	-9.85239
▁survey	-9.85276
▁abuse	-9.85352
▁construction	-9.85376
▁vast	-9.85376
▁coverage	-9.85381
52	-9.85393
▁responsible	-9.85395
▁corporate	-9.85395
▁otherwise	-9.85407
▁driving	-9.85445
▁businesses	-9.85502
33	-9.8553
for	-9.85631
▁solution	-9.85663
▁Research	-9.85707
▁Australian	-9.85718
▁camera	-9.85767
▁launched	-9.85808
▁2007	-9.85978
▁forms	-9.8598
▁obvious	-9.8603
▁helping	-9.8603
35	-9.8606
▁opposition	-9.86148
▁possibly	-9.86171
▁therefore	-9.86172
one	-9.86271
▁rates	-9.86295
▁cars	-9.86333
▁double	-9.86353
ch	-9.86445
▁Game	-9.86462
▁William	-9.86463
▁north	-9.86516
▁scale	-9.86553
▁filed	-9.86588
▁corner	-9.86606
▁beat	-9.86645
▁bigger	-9.86939
▁Bank	-9.86952
▁Each	-9.86959
▁display	-9.87139
▁increasing	-9.87169
▁radio	-9.87181
▁skin	-9.8721
▁nor	-9.87213
▁doubt	-9.8724
▁accept	-9.8726
▁produced	-9.87263
▁location	-9.87333
70	-9.87437
41	-9.87554
▁direction	-9.8756
▁prior	-9.8767
▁hundreds	-9.87684
▁Britain	-9.8772
▁Jewish	-9.87727
▁gender	-9.87759
He	-9.87919
▁arrested	-9.8794
▁concerned	-9.87992
▁served	-9.88068
▁justice	-9.88084
▁decide	-9.88098
▁concern	-9.88109
▁enter	-9.882
over	-9.88237
▁decisions	-9.88398
▁plays	-9.88455
▁variety	-9.88514
▁England	-9.88527
▁caught	-9.88527
▁definitely	-9.88546
▁scientific	-9.88559
▁hasn	-9.88562
▁USA	-9.88568
If	-9.88694
▁hate	-9.88764
▁suggested	-9.88772
▁advantage	-9.88842
▁document	-9.88878
▁institutions	-9.88911
▁ran	-9.88993
▁yards	-9.89249
▁Steve	-9.89301
▁tough	-9.89327
▁Yet	-9.89359
▁2006	-9.89475
▁CEO	-9.89643
▁connection	-9.89673
▁window	-9.89699
▁gay	-9.89751
▁Service	-9.8976
▁testing	-9.89791
▁tells	-9.89853
54	-9.89894
▁mental	-9.9003
▁legislation	-9.90117
▁blue	-9.90216
▁domestic	-9.90224
▁unit	-9.90301
▁Ben	-9.90368
There	-9.9041
▁funds	-9.90431
▁seeking	-9.90499
▁Hall	-9.90557
▁keeping	-9.90626
▁tools	-9.90639
▁broke	-9.90673
76	-9.907
▁ten	-9.90836
▁remove	-9.90841
▁equipment	-9.90934
▁Second	-9.90946
▁planned	-9.90961
▁slightly	-9.90973
▁watching	-9.90986
▁identified	-9.91001
▁Open	-9.91009
ro	-9.91105
▁Force	-9.91276
▁dream	-9.91283
▁victims	-9.913
92	-9.91328
▁instance	-9.91331
um	-9.91345
▁finish	-9.91448
▁files	-9.91464
22	-9.91632
▁virtual	-9.91685
▁Public	-9.91728
▁decade	-9.91735
▁spokesman	-9.9175
▁Angeles	-9.91753
fc	-9.91761
▁injury	-9.91779
▁Army	-9.91786
▁committed	-9.91819
▁sides	-9.91986
▁issued	-9.92073
▁Sen	-9.92093
▁generally	-9.92099
ful	-9.92143
▁camp	-9.92154
▁hearing	-9.92211
▁limit	-9.92214
▁purpose	-9.92214
▁interests	-9.92251
▁reflect	-9.92263
09	-9.9237
▁defensive	-9.92459
36	-9.92474
nd	-9.92477
58	-9.92518
97	-9.92542
il	-9.92552
ng	-9.9257
▁Middle	-9.92576
▁planning	-9.92596
▁labor	-9.92601
▁distance	-9.92607
▁heavy	-9.92658
▁balance	-9.92697
▁assault	-9.92718
▁notice	-9.92745
▁prime	-9.92809
▁Z	-9.92968
▁husband	-9.92971
▁setting	-9.93091
98	-9.931
▁sale	-9.93122
61	-9.93211
▁mix	-9.93281
▁Super	-9.93362
▁cash	-9.934
You	-9.93408
▁Android	-9.93409
▁District	-9.93413
▁Bitcoin	-9.9342
▁truly	-9.9342
▁birth	-9.93469
▁taxes	-9.93502
▁fair	-9.93567
▁River	-9.93577
80	-9.93601
▁turns	-9.93603
▁potentially	-9.9376
▁context	-9.93828
tic	-9.93893
▁fuel	-9.93912
▁suggest	-9.9392
▁murder	-9.93924
▁server	-9.93937
▁writer	-9.93988
▁speaking	-9.94052
men	-9.94191
▁Mexico	-9.94294
▁trip	-9.9431
▁green	-9.94332
32	-9.94461
▁et	-9.94462
ling	-9.94467
▁managed	-9.94482
▁yes	-9.94535
▁supported	-9.94585
ry	-9.9459
U	-9.94594
27	-9.94644
▁disease	-9.94683
▁Syrian	-9.94728
42	-9.94788
▁developing	-9.94801
▁exist	-9.94808
43	-9.95008
▁sleep	-9.95101
57	-9.95123
▁talks	-9.95165
▁peace	-9.95305
▁update	-9.95346
▁cancer	-9.95512
▁factors	-9.95512
▁factor	-9.95637
▁imagine	-9.95707
▁photos	-9.95765
65	-9.95769
▁command	-9.95834
▁waiting	-9.95864
▁spread	-9.95911
▁rock	-9.95911
▁identity	-9.95951
▁authority	-9.95965
▁Before	-9.9604
▁operation	-9.96124
▁killing	-9.96128
▁happening	-9.96146
▁bus	-9.9615
▁finding	-9.9619
▁PC	-9.96236
▁missing	-9.9633
▁healthy	-9.96333
▁slow	-9.96344
▁Indian	-9.96355
▁Director	-9.96388
▁district	-9.9641
▁victim	-9.96436
▁apps	-9.96467
▁park	-9.96597
▁developers	-9.9668
▁minute	-9.96694
▁baby	-9.96814
▁Part	-9.96853
which	-9.96876
▁era	-9.96879
▁changing	-9.96903
▁enjoy	-9.96916
▁discuss	-9.96932
▁discovered	-9.96995
os	-9.97003
▁object	-9.97013
99	-9.97123
la	-9.97192
▁Place	-9.97231
73	-9.97239
▁200	-9.97346
▁faith	-9.97355
▁vision	-9.97494
▁heat	-9.97533
ne	-9.97544
▁amazing	-9.9755
▁focused	-9.97594
▁paying	-9.97604
▁stock	-9.9761
▁g	-9.97658
▁expensive	-9.97683
▁clean	-9.97746
▁artist	-9.97886
▁29	-9.97913
▁exchange	-9.97924
relatively	-9.98018
▁strength	-9.98131
▁route	-9.98157
▁attorney	-9.98179
",	-9.98192
▁2000	-9.9834
▁measures	-9.98447
▁rare	-9.9846
▁depend	-9.98487
▁progress	-9.98557
▁impossible	-9.98569
▁thanks	-9.98734
▁El	-9.98778
▁favor	-9.98813
io	-9.98849
▁removed	-9.98952
▁failure	-9.99082
▁trend	-9.99088
▁Are	-9.99138
▁trust	-9.99172
▁union	-9.99172
▁degree	-9.99205
▁solid	-9.99268
▁Only	-9.99407
▁Church	-9.9942
▁carried	-9.99445
▁stopped	-9.99449
▁fellow	-9.99456
▁agencies	-9.99469
▁Central	-9.99478
▁ship	-9.99482
▁About	-9.99494
▁BBC	-9.99499
▁broken	-9.99537
▁Back	-9.99546
▁Paris	-9.99569
!"	-9.9982
▁feels	-9.99848
▁alternative	-9.99984
49	-9.99991
▁package	-10
ra	-10.0009
▁Me	-10.0009
▁condition	-10.0014
▁click	-10.0017
▁offensive	-10.0021
▁famous	-10.0027
▁Supreme	-10.0034
▁Toronto	-10.0034
▁worst	-10.0035
▁guilty	-10.0036
▁becoming	-10.0051
▁placed	-10.0053
):	-10.0088
▁$1	-10.0092
▁planet	-10.0094
▁cell	-10.0098
▁seconds	-10.0099
▁contains	-10.0112
▁Dan	-10.0123
▁jump	-10.0129
▁arm	-10.0132
▁greatest	-10.0132
▁Media	-10.0136
▁initially	-10.0142
▁commercial	-10.0163
▁3.	-10.0176
▁sit	-10.0177
▁none	-10.0177
▁fund	-10.0178
▁sector	-10.0179
▁metal	-10.0194
▁perform	-10.0194
▁achieve	-10.0196
▁selling	-10.0199
▁32	-10.0203
▁methods	-10.0207
▁elements	-10.0216
▁twice	-10.0216
▁Turkey	-10.0216
▁minimum	-10.0217
▁enforcement	-10.022
▁Daily	-10.022
▁apparently	-10.0224
87	-10.0226
▁guess	-10.023
▁steps	-10.024
▁finished	-10.0247
▁regime	-10.0255
59	-10.0259
▁draw	-10.0264
▁Group	-10.0268
www	-10.029
▁mark	-10.0291
▁beer	-10.03
▁sites	-10.0302
▁basis	-10.0307
▁denied	-10.0308
▁Colorado	-10.0308
▁90	-10.0309
▁Amazon	-10.0309
▁Will	-10.0313
▁Good	-10.0315
▁unless	-10.0316
▁pair	-10.0321
▁Oh	-10.0322
▁introduced	-10.0328
▁owner	-10.034
▁Rep	-10.0357
▁ruling	-10.0361
▁handle	-10.0365
▁Hill	-10.0368
▁select	-10.0371
▁plants	-10.0374
ul	-10.0375
▁guard	-10.0377
▁carbon	-10.0383
▁experts	-10.0384
▁votes	-10.0384
▁cultural	-10.0388
▁streets	-10.039
▁31	-10.0393
▁alleged	-10.0394
▁stated	-10.0397
▁enemy	-10.0399
▁responsibility	-10.04
▁evening	-10.0401
▁except	-10.0403
▁arrived	-10.041
69	-10.041
▁allegations	-10.0414
▁obviously	-10.0414
91	-10.0422
▁cuts	-10.0449
▁Richard	-10.0462
▁hurt	-10.0462
▁brother	-10.0463
▁Korean	-10.0465
▁Commission	-10.047
▁wall	-10.047
▁reform	-10.0477
78	-10.0477
▁print	-10.0483
▁infrastructure	-10.0493
▁plenty	-10.0493
▁university	-10.0493
▁smart	-10.0494
▁indeed	-10.0494
▁dropped	-10.0499
▁standing	-10.0503
▁closer	-10.0508
▁scheduled	-10.0508
▁troops	-10.0509
▁determine	-10.0511
90	-10.0527
▁soldiers	-10.0533
▁arms	-10.0539
▁di	-10.0547
▁error	-10.056
▁Right	-10.0561
▁length	-10.0584
▁weren	-10.0584
▁remaining	-10.0585
▁yesterday	-10.0587
▁relevant	-10.0587
▁immigration	-10.059
▁Saudi	-10.059
▁glass	-10.0592
▁signs	-10.0596
▁trouble	-10.0605
▁Prime	-10.0605
46	-10.0621
▁strike	-10.0649
67	-10.0654
▁protest	-10.0665
▁signal	-10.0666
▁fired	-10.0666
▁voted	-10.0667
▁models	-10.0674
▁Young	-10.0676
[	-10.0681
▁located	-10.0684
▁everybody	-10.0684
▁married	-10.0685
▁sitting	-10.0686
▁returned	-10.0686
▁afternoon	-10.0686
▁voting	-10.069
▁facing	-10.069
▁Japanese	-10.0691
▁Watch	-10.0692
▁applications	-10.0696
▁videos	-10.07
▁declined	-10.0703
▁environmental	-10.0708
▁surprise	-10.072
▁stars	-10.0724
▁suggests	-10.0729
ter	-10.0735
▁internal	-10.0762
▁Get	-10.0767
▁expansion	-10.077
way	-10.0771
▁opportunities	-10.0778
▁absolutely	-10.0784
▁experienced	-10.0791
▁homes	-10.0791
▁estimated	-10.0791
▁en	-10.0792
▁conduct	-10.0799
▁argued	-10.0801
▁Y	-10.0801
▁earned	-10.0803
▁poll	-10.0806
▁connected	-10.081
▁humans	-10.0811
▁cells	-10.0816
▁seat	-10.0817
▁aim	-10.0821
▁Free	-10.0822
creasingly	-10.0833
▁novel	-10.0839
▁positions	-10.084
age	-10.0845
▁pieces	-10.0856
▁zone	-10.0857
▁annual	-10.0865
▁possibility	-10.0875
▁library	-10.0876
▁Arizona	-10.0877
▁democracy	-10.0879
▁operating	-10.0879
▁Project	-10.088
▁familiar	-10.0885
style	-10.0894
▁Bar	-10.0903
28	-10.0907
▁treat	-10.091
▁filled	-10.0912
▁arrest	-10.0918
▁Williams	-10.0933
▁owners	-10.0936
▁Team	-10.0959
▁passing	-10.0967
▁leads	-10.0968
▁award	-10.0972
▁properties	-10.0974
▁Francisco	-10.0974
▁Meanwhile	-10.0975
▁Federal	-10.0976
▁violent	-10.0977
▁secretary	-10.0977
▁2.	-10.0991
▁pain	-10.0996
▁conducted	-10.1002
▁Jan	-10.1002
%	-10.1012
▁Scott	-10.1014
not	-10.1023
▁copy	-10.1028
48	-10.1029
▁70	-10.103
▁Power	-10.1044
▁newspaper	-10.1046
▁animal	-10.1048
▁Top	-10.1055
▁considering	-10.1057
▁operate	-10.1059
rd	-10.1061
▁proud	-10.1062
▁Blue	-10.107
▁Rock	-10.1071
▁copyright	-10.1073
▁Christmas	-10.1075
▁Seattle	-10.1077
▁attempts	-10.1083
▁shift	-10.1083
▁army	-10.1086
▁plus	-10.1087
▁moral	-10.1089
▁experiment	-10.1099
▁//	-10.1115
▁train	-10.1116
▁turning	-10.1126
▁extreme	-10.1127
pm	-10.1134
▁dog	-10.1142
▁vehicles	-10.1142
▁perspective	-10.1143
▁percentage	-10.1145
▁500	-10.1157
▁edge	-10.1157
ish	-10.1161
▁fresh	-10.1162
▁Cruz	-10.1172
▁Hollywood	-10.1173
▁weather	-10.1173
▁Thomas	-10.1175
▁Boston	-10.1175
▁basically	-10.1175
▁Life	-10.1186
▁explains	-10.119
▁markets	-10.119
▁forget	-10.1191
▁figures	-10.1194
na	-10.12
39	-10.1201
▁significantly	-10.1206
▁k	-10.123
▁stands	-10.1237
▁iPhone	-10.1245
▁Mar	-10.1257
▁Maybe	-10.1272
▁Labour	-10.1274
▁herself	-10.1275
▁privacy	-10.1275
▁appeal	-10.1276
▁Jesus	-10.1276
▁stood	-10.1276
▁intended	-10.1287
▁UN	-10.129
▁pointed	-10.1294
▁purchase	-10.1302
▁affected	-10.1316
▁2018	-10.1319
▁extend	-10.1325
▁label	-10.1335
95	-10.1336
▁sounds	-10.1337
▁relations	-10.1338
▁lawyer	-10.1352
▁express	-10.1353
Z	-10.1353
▁picked	-10.1354
▁Palestinian	-10.1356
▁Thank	-10.1359
▁wild	-10.1365
▁wind	-10.1367
▁Road	-10.1377
▁YouTube	-10.1379
▁quote	-10.1382
▁transition	-10.1384
▁correct	-10.1391
▁pages	-10.1394
▁opposed	-10.1399
▁tests	-10.1417
▁con	-10.1427
▁talent	-10.1428
79	-10.1433
et	-10.1444
rs	-10.1444
ant	-10.1448
▁giant	-10.1453
▁combat	-10.1457
▁magazine	-10.1458
▁session	-10.1459
▁Sports	-10.1461
▁necessarily	-10.1479
▁excited	-10.148
▁Secretary	-10.1481
▁CIA	-10.1484
▁miss	-10.1485
▁fairly	-10.1494
▁elected	-10.1494
▁responded	-10.1502
right	-10.1504
led	-10.1506
▁experiences	-10.151
▁eat	-10.1515
▁drink	-10.1516
▁classic	-10.1518
▁Van	-10.1523
he	-10.1523
▁generate	-10.1557
▁lawsuit	-10.156
▁teacher	-10.1565
▁equal	-10.1567
▁opposite	-10.1583
▁hardware	-10.1584
▁awesome	-10.1584
▁2013,	-10.1592
▁port	-10.1596
▁approved	-10.1604
▁lived	-10.1606
▁discussed	-10.1618
▁originally	-10.1625
▁Jim	-10.1631
▁struggle	-10.1641
▁severe	-10.1647
▁presented	-10.1662
▁cross	-10.1663
88	-10.1664
▁Island	-10.1666
▁Next	-10.1678
68	-10.1688
▁agenda	-10.1688
▁specifically	-10.169
▁bought	-10.1692
▁capacity	-10.1693
▁ultimately	-10.1696
▁2,	-10.1697
▁capable	-10.17
▁CNN	-10.1702
▁pure	-10.1702
ri	-10.1705
▁replaced	-10.1713
▁armed	-10.1728
▁ill	-10.173
▁hop	-10.1751
▁describe	-10.1767
▁debut	-10.1768
▁manage	-10.1775
▁client	-10.1778
▁Three	-10.1796
▁Islam	-10.1801
▁Add	-10.1803
85	-10.1813
Q	-10.1821
▁connect	-10.1822
▁plane	-10.1823
▁expressed	-10.1823
ley	-10.184
▁objects	-10.1842
▁units	-10.1853
▁completed	-10.1867
▁covered	-10.1879
▁adds	-10.1885
▁Chief	-10.1886
▁Andrew	-10.1886
▁doctor	-10.1887
▁Virginia	-10.1888
▁gain	-10.1888
ization	-10.1888
▁films	-10.1889
▁offering	-10.1893
▁tree	-10.1894
▁grew	-10.1903
▁Soviet	-10.1904
back	-10.1909
▁warned	-10.1911
▁rising	-10.1912
▁thoughts	-10.1915
▁wonder	-10.1915
▁thank	-10.1915
▁declared	-10.1917
▁Jews	-10.1919
▁aircraft	-10.1919
▁35	-10.1923
▁detailed	-10.1924
▁Lee	-10.1924
▁refused	-10.1925
ted	-10.193
▁80	-10.1954
▁ends	-10.1962
▁reduced	-10.1967
▁hopes	-10.1971
▁increases	-10.1976
▁aid	-10.1979
▁Take	-10.198
▁offense	-10.1988
▁messages	-10.1989
▁trigger	-10.1992
▁studio	-10.1996
▁reaction	-10.1998
89	-10.1998
▁numer	-10.2004
▁Lake	-10.2006
▁suit	-10.2008
▁Show	-10.2011
▁Chapter	-10.2012
▁cold	-10.2015
ability	-10.2015
▁shall	-10.2018
▁applied	-10.2018
▁counter	-10.202
()	-10.2026
▁mention	-10.203
▁effectively	-10.2034
▁boost	-10.2041
▁surprised	-10.2041
▁flow	-10.2052
▁formed	-10.2053
▁elections	-10.2055
▁brief	-10.2062
▁PM	-10.2067
▁2005	-10.207
96	-10.2076
▁sport	-10.2083
▁Ford	-10.2084
▁tour	-10.2095
▁assume	-10.2096
▁honest	-10.2098
ty	-10.2108
▁weak	-10.2114
▁Li	-10.2115
▁Michigan	-10.2121
▁distribution	-10.2121
▁controversial	-10.2122
▁Professor	-10.2125
▁Joe	-10.2127
▁Space	-10.2129
▁politicians	-10.2164
▁bringing	-10.2165
86	-10.2165
▁pulled	-10.2166
▁defeat	-10.2168
▁desire	-10.2188
81	-10.2204
▁emails	-10.2214
▁Home	-10.2226
▁acting	-10.2232
▁heavily	-10.2232
▁advice	-10.2232
▁occurred	-10.2232
▁Energy	-10.2232
▁sub	-10.2235
▁Year	-10.2237
▁Where	-10.2241
▁faster	-10.2243
▁Ma	-10.2247
▁challenges	-10.2248
▁suffered	-10.2255
▁foot	-10.2256
▁Matt	-10.2257
▁grown	-10.2257
▁crimes	-10.2259
▁missed	-10.2262
related	-10.2262
▁younger	-10.2263
▁Play	-10.227
▁throw	-10.2278
▁shoot	-10.2284
▁flag	-10.2285
▁Arab	-10.2286
▁findings	-10.2289
▁powers	-10.2292
▁secure	-10.2314
▁governor	-10.2329
▁appearance	-10.2331
▁creative	-10.2333
▁Science	-10.2334
ka	-10.2341
▁transfer	-10.2343
▁define	-10.2343
▁northern	-10.2344
▁consumers	-10.2346
▁Irish	-10.2346
▁nearby	-10.2347
▁communications	-10.2348
▁native	-10.2349
▁Fire	-10.2349
▁entry	-10.2352
▁emissions	-10.2355
▁sharing	-10.2357
▁sun	-10.2364
go	-10.2372
free	-10.2377
▁prepared	-10.2385
▁2001	-10.2393
94	-10.2407
▁promote	-10.2412
▁suspect	-10.2422
▁skill	-10.2435
▁pop	-10.2437
▁topic	-10.2437
▁announcement	-10.2438
▁supporting	-10.244
▁facts	-10.2442
▁engine	-10.2444
▁commitment	-10.2445
▁minor	-10.2446
▁Catholic	-10.2448
▁seek	-10.2448
▁nations	-10.2453
▁facility	-10.2458
▁currency	-10.2459
▁NBA	-10.2461
▁bodies	-10.2462
▁Board	-10.2463
▁Long	-10.2471
▁targets	-10.2487
▁wealth	-10.2503
93	-10.2529
▁implement	-10.253
▁argue	-10.2534
▁realize	-10.2536
▁refer	-10.2537
▁encourage	-10.2545
▁Frank	-10.2551
▁opponents	-10.2559
▁Eric	-10.2559
▁sets	-10.2566
▁attract	-10.2571
▁roster	-10.2573
▁importance	-10.2573
▁continuing	-10.2574
▁maximum	-10.2574
▁confidence	-10.2575
▁Ireland	-10.2576
▁Asia	-10.2576
▁cap	-10.2577
▁Grand	-10.258
▁circumstances	-10.2581
▁destroy	-10.259
▁fix	-10.2597
all	-10.2618
38	-10.262
▁walked	-10.2621
$	-10.2628
▁targeted	-10.263
▁View	-10.2638
▁stores	-10.2645
▁seasons	-10.2647
▁apart	-10.2649
unable	-10.265
▁wage	-10.2655
▁promise	-10.2655
▁materials	-10.2657
▁articles	-10.2659
▁fish	-10.2663
▁songs	-10.2668
▁replace	-10.2671
▁spring	-10.2676
▁45	-10.2677
▁revenue	-10.2679
82	-10.2681
▁delay	-10.2681
▁adult	-10.2682
No	-10.2686
▁panel	-10.2687
▁pool	-10.2688
▁caption	-10.2689
▁lots	-10.269
▁Detroit	-10.269
▁Houston	-10.269
▁comfortable	-10.269
▁chemical	-10.2691
▁Share	-10.2693
▁output	-10.2695
im	-10.2703
▁ongoing	-10.2704
-2	-10.2709
▁advanced	-10.2715
▁Human	-10.2718
level	-10.2726
▁Car	-10.2728
ier	-10.2732
▁delivered	-10.2733
▁artists	-10.2741
▁2016,	-10.275
▁remained	-10.2759
▁drivers	-10.2766
▁Sun	-10.2782
▁shots	-10.2784
▁represents	-10.2785
▁immediate	-10.2794
▁Gold	-10.2798
▁pattern	-10.28
▁Us	-10.2801
▁Jack	-10.2802
▁matters	-10.2804
▁atmosphere	-10.2807
▁channel	-10.2809
▁campus	-10.2811
▁Water	-10.2813
▁dollar	-10.2814
▁Given	-10.2814
▁bag	-10.2815
▁rating	-10.2815
▁agents	-10.2817
▁string	-10.2827
▁Sea	-10.2833
sh	-10.2834
▁widely	-10.2837
▁extended	-10.2841
▁master	-10.2858
▁ordered	-10.2868
▁300	-10.2881
▁h	-10.2885
me	-10.2886
▁tech	-10.2898
▁wins	-10.2909
▁ex	-10.2915
▁evil	-10.2917
▁plot	-10.2917
▁council	-10.2917
▁square	-10.2924
▁Season	-10.2924
▁claiming	-10.2925
▁consist	-10.2926
▁injuries	-10.2926
▁contrast	-10.2926
▁liberal	-10.2926
▁neither	-10.2926
▁defence	-10.2927
▁portion	-10.2929
▁empty	-10.2929
▁zero	-10.2929
▁injured	-10.293
▁Perhaps	-10.2931
▁ride	-10.2932
▁essentially	-10.2936
▁Click	-10.2937
▁west	-10.2939
▁observed	-10.2941
▁anyway	-10.2943
▁networks	-10.2949
▁agent	-10.2956
▁2015.	-10.2959
▁switch	-10.2964
▁noticed	-10.2964
▁defined	-10.2974
▁determined	-10.2974
▁Though	-10.2976
▁officially	-10.2976
▁;	-10.2994
do	-10.2998
▁Tim	-10.2999
▁recommend	-10.3017
▁boys	-10.3028
li	-10.303
▁technical	-10.3035
▁sample	-10.3044
▁communication	-10.3044
▁deputy	-10.3046
▁gap	-10.3046
net	-10.3047
▁anywhere	-10.3049
▁winter	-10.3049
▁ISIS	-10.3051
▁somewhat	-10.3052
▁Ohio	-10.3052
▁repeatedly	-10.3054
▁2015,	-10.306
▁coal	-10.3068
▁listed	-10.3076
▁reporter	-10.308
What	-10.3087
That	-10.3088
▁meetings	-10.309
ED	-10.3092
▁holds	-10.3099
▁leaves	-10.3113
▁regulations	-10.3123
▁Games	-10.3124
As	-10.3134
▁activists	-10.3135
▁guns	-10.3137
▁reference	-10.3138
▁split	-10.314
field	-10.3152
▁Network	-10.3158
▁Images	-10.3161
▁pictures	-10.3163
▁appropriate	-10.3163
▁motion	-10.3164
▁expression	-10.3165
▁cheap	-10.3165
▁historical	-10.3165
▁explore	-10.3168
▁Afghanistan	-10.3168
▁earth	-10.3169
▁ancient	-10.3169
▁receiving	-10.317
▁universe	-10.317
▁crew	-10.317
▁Journal	-10.3171
▁gaming	-10.3171
▁surveillance	-10.3171
▁1990	-10.3172
83	-10.3174
▁stable	-10.3177
▁combined	-10.3183
Barack	-10.3188
▁IT	-10.3192
▁destroyed	-10.3197
▁Sky	-10.3197
▁loved	-10.3203
▁seriously	-10.3206
called	-10.3207
▁respond	-10.3209
▁controlled	-10.3212
▁writes	-10.3212
▁treated	-10.3215
▁visual	-10.3238
▁youth	-10.3238
▁jail	-10.3255
▁mess	-10.3258
▁joining	-10.3259
▁shape	-10.3264
▁king	-10.327
▁blame	-10.3271
▁tight	-10.3279
▁Note	-10.3283
▁franchise	-10.3287
ite	-10.3289
▁element	-10.329
▁territory	-10.3291
▁Republic	-10.3292
▁Wilson	-10.3292
▁bunch	-10.3292
▁flight	-10.3293
▁consumer	-10.3293
▁Which	-10.3294
▁solar	-10.3294
▁island	-10.3295
▁chosen	-10.3295
wing	-10.3302
▁Asian	-10.3304
▁patient	-10.3304
▁differences	-10.3308
▁allegedly	-10.3309
▁breaking	-10.3313
▁waste	-10.3316
▁thinks	-10.3325
▁expectations	-10.3329
twitter	-10.3333
American	-10.3334
▁defend	-10.3335
▁expand	-10.3335
▁examples	-10.3336
▁begins	-10.3339
▁totally	-10.3342
▁36	-10.3349
▁closely	-10.3359
▁assets	-10.3363
▁moments	-10.3363
▁Arabia	-10.3365
▁decline	-10.3384
▁download	-10.3387
▁frame	-10.339
▁recognize	-10.3401
▁surprising	-10.3404
▁Pakistan	-10.3415
▁criticism	-10.3416
▁coffee	-10.3418
▁restaurant	-10.3418
▁Data	-10.3418
▁Putin	-10.3419
▁scoring	-10.3419
▁anymore	-10.3421
▁emergency	-10.3422
▁vice	-10.3426
▁Max	-10.3426
▁root	-10.3431
▁sister	-10.3432
▁2002	-10.3434
▁reporters	-10.3435
house	-10.3435
▁centre	-10.3444
▁scored	-10.3447
▁profile	-10.3452
▁seats	-10.3455
▁feed	-10.3455
▁enjoyed	-10.3457
▁blow	-10.3464
▁mayor	-10.3468
▁attend	-10.3468
▁governments	-10.347
▁2003	-10.3479
▁protected	-10.3492
▁reporting	-10.3499
▁Social	-10.35
▁4.	-10.3504
▁relationships	-10.3505
▁establish	-10.3517
▁exercise	-10.3518
▁recorded	-10.3532
▁terror	-10.3533
▁Sign	-10.3538
▁Week	-10.3538
▁authors	-10.354
▁lies	-10.354
▁resolution	-10.3542
▁worried	-10.3543
▁Stephen	-10.3544
▁proposal	-10.3544
▁Attorney	-10.3545
▁enemies	-10.3545
▁Santa	-10.3547
▁rely	-10.3547
▁Kevin	-10.3548
▁Muslims	-10.3548
▁Senator	-10.3549
▁suddenly	-10.3551
▁Jason	-10.3551
▁Oct	-10.3551
▁Women	-10.3553
▁causes	-10.3554
▁properly	-10.3556
▁chain	-10.3557
▁Kim	-10.3567
lo	-10.357
▁deeply	-10.357
▁consequences	-10.3583
▁performed	-10.3585
▁Bob	-10.3585
▁immigrants	-10.3586
▁que	-10.3589
▁threats	-10.3597
▁fewer	-10.3605
▁fill	-10.361
▁identify	-10.3627
▁featured	-10.3629
ance	-10.363
▁carrying	-10.3632
▁stepp	-10.3638
▁finance	-10.3649
▁proper	-10.366
▁fly	-10.3663
▁crazy	-10.3671
▁Spain	-10.3672
▁Such	-10.3674
▁exciting	-10.3674
▁Among	-10.3674
▁stack	-10.3675
▁downtown	-10.3676
▁temperature	-10.3676
▁weapon	-10.3676
▁division	-10.3677
▁Adam	-10.3677
▁Yeah	-10.3679
▁faced	-10.368
▁cycle	-10.368
▁abortion	-10.3681
▁shop	-10.3682
▁Dark	-10.3686
▁Report	-10.3687
▁reasonable	-10.3689
▁warning	-10.3689
▁Mary	-10.369
▁editor	-10.3692
▁publicly	-10.3697
ir	-10.3697
▁regularly	-10.3699
▁Ms	-10.3708
▁protests	-10.3714
▁se	-10.3732
▁updates	-10.3733
▁fashion	-10.3741
ler	-10.3759
▁rich	-10.3764
▁proof	-10.3778
▁CO	-10.378
▁Iowa	-10.3787
▁33	-10.3787
For	-10.3795
▁random	-10.3796
game	-10.3798
▁Davis	-10.38
▁suicide	-10.3801
▁penalty	-10.3801
▁reputation	-10.3801
▁mistake	-10.3801
▁southern	-10.3802
▁approval	-10.3802
▁extension	-10.3802
▁rally	-10.3803
▁alcohol	-10.3804
▁nobody	-10.3804
▁wake	-10.3804
▁hundred	-10.3807
▁laid	-10.3807
They	-10.3809
▁Finally	-10.3809
▁matches	-10.381
▁electric	-10.381
▁fifth	-10.3811
▁default	-10.3812
▁Wars	-10.3815
▁drawn	-10.3817
▁kid	-10.3818
▁assistance	-10.3818
▁Mac	-10.382
▁resulting	-10.3829
▁teachers	-10.3829
▁promised	-10.3832
▁marketing	-10.3834
▁informed	-10.3838
▁joint	-10.3838
▁accepted	-10.3847
▁colleagues	-10.3849
▁script	-10.385
▁(1	-10.3857
▁hits	-10.3866
And	-10.387
▁enable	-10.3872
▁Keep	-10.3883
▁discover	-10.3898
▁crash	-10.3901
▁5.	-10.3903
▁welcome	-10.3906
▁founder	-10.3906
ver	-10.3915
▁chairman	-10.3916
▁Jeff	-10.392
▁insist	-10.3922
▁bright	-10.3926
ov	-10.3928
▁tip	-10.3928
▁journey	-10.3931
▁kinds	-10.3932
▁ring	-10.3933
▁Administration	-10.3933
▁Indeed	-10.3933
▁DNA	-10.3933
▁manufacturing	-10.3936
▁Unfortunately	-10.3938
▁dry	-10.3938
▁1980	-10.3938
▁payment	-10.3943
▁chair	-10.3944
▁Did	-10.3955
▁bid	-10.3957
we	-10.3971
▁TO	-10.3973
▁suffering	-10.3978
class	-10.398
▁49	-10.3984
-3	-10.3987
▁guide	-10.3992
▁mine	-10.3993
▁suffer	-10.3998
▁helps	-10.4005
▁Services	-10.4007
▁readers	-10.4011
▁returns	-10.4027
▁theme	-10.4028
▁pot	-10.4035
▁Ron	-10.4036
▁Sam	-10.4039
▁champion	-10.4048
▁versions	-10.4049
credibly	-10.4051
▁prefer	-10.4051
▁accurate	-10.4053
▁follows	-10.4061
▁warm	-10.4062
▁Oregon	-10.4065
▁Jersey	-10.4066
▁Society	-10.4066
▁assistant	-10.4068
▁complicated	-10.4068
▁march	-10.4069
▁approximate	-10.4071
▁quarterback	-10.4072
▁Bo	-10.4076
▁outcome	-10.4076
▁spirit	-10.4077
▁mouth	-10.4079
▁concluded	-10.4081
▁customer	-10.4082
▁Video	-10.4084
-1	-10.409
▁MP	-10.4093
▁row	-10.4097
▁terrorist	-10.4099
▁deaths	-10.4103
▁updated	-10.411
▁install	-10.4111
▁34	-10.412
▁praise	-10.4121
▁drinking	-10.4125
▁requirements	-10.4132
▁supports	-10.4137
ha	-10.4138
▁letters	-10.414
▁detail	-10.4141
▁moves	-10.4143
lin	-10.4149
▁y	-10.4152
▁brings	-10.4182
▁escape	-10.4183
▁consistent	-10.419
▁score	-10.4196
▁creation	-10.4196
▁Charles	-10.4201
▁Romney	-10.4201
▁Business	-10.4201
▁Henry	-10.4202
▁battery	-10.4202
▁Italy	-10.4203
▁Related	-10.4203
▁Moore	-10.4203
▁History	-10.4204
▁Jackson	-10.4205
▁exit	-10.4206
▁manner	-10.4207
▁Defense	-10.4207
▁storage	-10.4207
▁NASA	-10.4209
▁browser	-10.4209
▁bitcoin	-10.421
▁danger	-10.421
▁constantly	-10.4212
▁statements	-10.4212
▁attacked	-10.4217
▁Web	-10.4218
▁referred	-10.4221
▁movies	-10.4221
▁doctors	-10.4224
nna	-10.4227
▁unusual	-10.4229
▁installed	-10.4233
state	-10.4245
▁load	-10.4257
ey	-10.426
▁stretch	-10.4266
▁owned	-10.4268
▁Out	-10.4269
▁Love	-10.4286
▁bills	-10.4292
▁worry	-10.4292
▁Photos	-10.4293
▁shouldn	-10.4296
▁Medic	-10.4297
▁48	-10.4309
▁mode	-10.4311
▁contest	-10.4317
▁lay	-10.4325
▁sentence	-10.4327
▁afford	-10.4336
▁ourselves	-10.4338
▁Austin	-10.4338
▁Samsung	-10.434
▁minority	-10.4341
▁somebody	-10.4341
▁Guardian	-10.4342
▁Labor	-10.4343
▁tiny	-10.4343
▁Lord	-10.4343
▁duty	-10.4343
▁literally	-10.4344
▁urban	-10.4346
▁settlement	-10.4347
▁replacement	-10.4347
▁definition	-10.4348
▁adults	-10.4349
▁occur	-10.4349
▁Italian	-10.435
▁database	-10.4352
▁statistics	-10.4352
▁practices	-10.4353
▁import	-10.4354
▁depth	-10.4355
▁Nick	-10.4355
▁winner	-10.4356
▁protesters	-10.4358
▁AP	-10.4366
▁phase	-10.4372
mail	-10.4374
▁VR	-10.4375
▁Make	-10.4375
▁taste	-10.4378
▁Thanks	-10.438
▁regions	-10.4387
▁hell	-10.4403
▁linked	-10.4403
▁listen	-10.4408
▁Inc	-10.441
▁buildings	-10.4412
▁broadcast	-10.4421
▁micro	-10.4424
▁Age	-10.4427
nt	-10.4432
▁fee	-10.4459
▁flat	-10.4463
▁remote	-10.4464
▁usual	-10.4466
▁knowing	-10.4466
▁advance	-10.4469
▁controversy	-10.4477
▁valuable	-10.4477
▁steel	-10.4477
▁primarily	-10.4477
▁stuck	-10.4477
▁philosophy	-10.4478
▁Valley	-10.4478
▁priority	-10.4479
▁existence	-10.448
▁excellent	-10.4481
▁tested	-10.4483
▁conclusion	-10.449
▁scenario	-10.449
▁belief	-10.4491
▁rejected	-10.4492
▁employee	-10.4492
▁broad	-10.4506
▁AT	-10.4507
▁tone	-10.4509
merely	-10.4511
q	-10.4512
▁polls	-10.4518
▁investors	-10.4523
▁pitch	-10.4533
down	-10.4541
▁mainly	-10.4541
za	-10.4546
▁solve	-10.4549
▁harm	-10.4551
▁drawing	-10.4561
▁lie	-10.4564
▁posts	-10.4565
▁tradition	-10.4566
▁walking	-10.4575
ur	-10.4576
ate	-10.4586
▁principles	-10.4591
see	-10.4594
▁partners	-10.4595
▁orders	-10.4604
▁blind	-10.4607
▁retail	-10.4612
▁platforms	-10.4615
▁ties	-10.4616
volving	-10.4617
▁Zealand	-10.4618
▁consumption	-10.4618
▁category	-10.4619
▁exposure	-10.4619
▁fought	-10.4621
▁1970	-10.4624
▁threatened	-10.4627
▁column	-10.4628
▁upcoming	-10.4628
▁roughly	-10.4628
▁unlikely	-10.4629
▁nomination	-10.463
▁classes	-10.4633
▁opponent	-10.4634
▁Land	-10.4635
▁hired	-10.4635
▁meat	-10.4636
▁alive	-10.4637
▁lawmakers	-10.4639
▁registered	-10.464
▁signing	-10.4644
▁perfectly	-10.4645
▁dealing	-10.4653
▁farmers	-10.4657
▁allies	-10.4671
▁pace	-10.4671
1.	-10.4673
▁Ten	-10.4675
▁magic	-10.4684
▁exists	-10.4687
▁evolution	-10.4693
▁fields	-10.4693
▁houses	-10.4705
▁amounts	-10.4706
▁rape	-10.4708
bit	-10.4724
▁stress	-10.4732
▁participate	-10.4734
▁2004	-10.4739
▁Look	-10.4739
▁Alex	-10.4742
▁sat	-10.4744
▁narrow	-10.4755
▁Egypt	-10.476
▁Scotland	-10.4761
▁coalition	-10.4761
▁understood	-10.4761
▁permission	-10.4761
▁technologies	-10.4761
▁strategic	-10.4763
▁struck	-10.4765
▁Eastern	-10.4765
▁recovery	-10.4767
▁Kelly	-10.4769
▁banned	-10.4769
▁estate	-10.4771
▁combination	-10.4776
▁explanation	-10.4777
▁neighborhood	-10.4778
▁radical	-10.4778
▁obtained	-10.4781
▁east	-10.4782
▁clients	-10.4786
▁folks	-10.4787
▁Old	-10.4788
▁contributed	-10.4791
▁fixed	-10.4795
made	-10.4802
end	-10.4805
▁Daniel	-10.4817
▁profit	-10.4817
▁represented	-10.4823
▁critics	-10.4823
When	-10.4825
▁phones	-10.4838
ny	-10.484
▁aside	-10.4843
▁functions	-10.4854
▁Have	-10.4858
▁tank	-10.4859
▁Bowl	-10.4869
▁compete	-10.4877
▁stick	-10.4879
▁Men	-10.489
▁collapse	-10.4893
▁Art	-10.4893
▁luck	-10.49
per	-10.4902
han	-10.4902
▁Set	-10.4902
▁chose	-10.4903
▁Intelligence	-10.4906
▁facilities	-10.4906
▁Warren	-10.4906
▁cannabis	-10.4907
▁Miller	-10.4909
▁fiscal	-10.4909
▁Ontario	-10.491
▁somewhere	-10.4911
▁causing	-10.4911
▁Dallas	-10.4911
▁exact	-10.4912
▁fake	-10.4915
="	-10.4915
▁Pacific	-10.4918
▁village	-10.4924
▁academic	-10.4926
▁exposed	-10.493
▁cable	-10.493
▁Use	-10.4931
ke	-10.4933
▁describes	-10.4933
gotten	-10.4935
▁marked	-10.4936
▁height	-10.4936
▁constitutional	-10.4938
▁storm	-10.4938
▁successfully	-10.4939
▁ignored	-10.494
▁selection	-10.4952
▁strikes	-10.4952
ting	-10.4962
▁proved	-10.4963
▁ads	-10.497
point	-10.4973
▁shortly	-10.4976
so	-10.4976
▁saved	-10.498
▁Dec	-10.4981
▁purposes	-10.4982
ah	-10.4983
▁parking	-10.4983
ho	-10.4987
▁Ask	-10.4987
▁roll	-10.4988
▁risks	-10.499
▁stake	-10.4992
4.	-10.4996
▁bomb	-10.5
▁2010,	-10.5
ner	-10.5006
▁remind	-10.5009
▁$2	-10.5015
▁Constitution	-10.5026
▁engage	-10.5033
▁essential	-10.5042
▁emotional	-10.5043
▁Parliament	-10.5044
▁industrial	-10.5045
▁links	-10.5049
▁Company	-10.5053
▁equivalent	-10.5053
▁extent	-10.5053
▁vulnerable	-10.5053
ine	-10.5054
▁intense	-10.5055
▁fraud	-10.5056
▁latter	-10.5057
▁deals	-10.5058
▁Special	-10.5058
▁democratic	-10.5062
▁earn	-10.5063
▁Brian	-10.5066
▁Thus	-10.5067
▁organized	-10.5068
▁prospect	-10.5075
▁veteran	-10.5075
▁tackle	-10.5075
▁attitude	-10.5076
▁pilot	-10.5077
town	-10.5077
▁Democrat	-10.5077
▁thousand	-10.5078
▁stronger	-10.5079
▁truck	-10.5081
▁sees	-10.5094
▁hole	-10.5098
but	-10.5099
ville	-10.5103
▁OK	-10.5119
▁watched	-10.5146
▁reveal	-10.5151
▁ending	-10.5153
▁arguments	-10.5153
▁knock	-10.5157
everal	-10.5162
▁Live	-10.5176
ors	-10.5177
▁strange	-10.5183
▁hadn	-10.5186
▁extensive	-10.5189
▁OF	-10.5192
▁Ho	-10.5195
▁soft	-10.5199
▁Patrick	-10.5202
▁Price	-10.5202
▁terrible	-10.5203
▁stolen	-10.5203
▁Ukraine	-10.5204
▁boss	-10.5204
▁Kansas	-10.5205
▁impressive	-10.5206
▁vary	-10.5211
▁exclusive	-10.5213
▁terrorism	-10.5215
▁behalf	-10.5218
▁emerged	-10.522
▁disaster	-10.5223
▁sugar	-10.5225
▁Royal	-10.5226
▁captured	-10.5231
▁expert	-10.5231
▁System	-10.5237
▁42	-10.5246
▁realized	-10.525
▁2016.	-10.5265
Image	-10.5273
scale	-10.5276
▁Jay	-10.5279
▁fighters	-10.5308
▁grounds	-10.5308
▁prepare	-10.5314
▁Night	-10.532
▁beliefs	-10.5338
▁aggressive	-10.5339
▁falling	-10.5345
ung	-10.5349
▁historic	-10.5352
▁Murray	-10.5354
▁ownership	-10.5354
▁poverty	-10.5354
▁incredible	-10.5355
▁stream	-10.5355
▁worldwide	-10.5356
▁Nintendo	-10.5359
▁spark	-10.5362
▁fundamental	-10.5362
▁raising	-10.5362
▁wages	-10.5366
▁Plus	-10.5368
▁answers	-10.5371
▁opt	-10.5376
▁transaction	-10.5379
▁interface	-10.538
▁console	-10.538
▁driven	-10.5391
▁edition	-10.5393
▁developer	-10.5395
▁volume	-10.5397
▁37	-10.5402
▁Rights	-10.5404
▁harder	-10.5404
▁km	-10.5409
!)	-10.5415
▁w	-10.5415
▁regional	-10.5424
Photo	-10.5426
▁item	-10.5443
ship	-10.5445
▁locations	-10.5445
▁semi	-10.5449
▁cameras	-10.5449
▁Pre	-10.5453
▁computers	-10.5467
▁eliminate	-10.548
▁Was	-10.5483
▁Jon	-10.5483
On	-10.5484
▁Hav	-10.5492
▁confident	-10.5493
▁prominent	-10.5494
▁Brazil	-10.5505
▁Thompson	-10.5507
▁programming	-10.5508
▁Northern	-10.5508
▁Bible	-10.5509
▁forever	-10.5509
▁Major	-10.551
▁regardless	-10.551
▁afraid	-10.5511
▁trading	-10.5512
▁deny	-10.5512
▁NBC	-10.5516
▁index	-10.5522
▁patterns	-10.5524
▁busy	-10.5524
▁equally	-10.5526
▁tournament	-10.5536
▁sanctions	-10.5538
▁finds	-10.5539
▁principle	-10.554
ham	-10.5542
▁complaint	-10.5542
▁expanded	-10.5542
▁dozen	-10.5545
▁publication	-10.5548
▁Gov	-10.5554
ji	-10.5554
▁selected	-10.556
ko	-10.5562
▁ID	-10.5563
▁wood	-10.5568
em	-10.5569
▁personally	-10.5575
▁improved	-10.5577
▁involves	-10.558
▁directed	-10.5581
But	-10.5586
▁contracts	-10.5586
▁formal	-10.5594
▁connections	-10.5595
▁blocks	-10.5609
▁button	-10.5609
▁Nations	-10.5614
den	-10.5622
▁puts	-10.5624
My	-10.5635
▁admitted	-10.565
▁tea	-10.5651
mo	-10.5652
▁grand	-10.5657
▁unlike	-10.5658
▁payments	-10.5661
▁Cameron	-10.5664
▁Conference	-10.5664
▁Amendment	-10.5664
▁Joseph	-10.5664
▁rural	-10.5664
▁schedule	-10.5664
▁corruption	-10.5664
▁electricity	-10.5665
▁sought	-10.5666
▁Jordan	-10.5666
▁revolution	-10.5666
▁surgery	-10.5666
▁joke	-10.5666
▁Left	-10.5667
▁Turkish	-10.5667
citing	-10.567
▁doors	-10.567
▁employment	-10.5671
▁noise	-10.5674
▁Any	-10.5674
▁Story	-10.5675
▁promises	-10.5676
▁Jr	-10.5681
▁processes	-10.5691
▁ranked	-10.5692
▁reduction	-10.5694
▁Christ	-10.5694
▁medicine	-10.5695
▁squad	-10.5697
▁attended	-10.5698
▁Columbia	-10.57
▁surrounding	-10.5704
▁purchased	-10.5705
AP	-10.5717
▁roles	-10.5736
▁collect	-10.5738
with	-10.5739
▁scenes	-10.5741
ING	-10.5747
▁civilians	-10.575
▁improvements	-10.577
▁returning	-10.5777
▁Mc	-10.5777
▁faces	-10.5778
▁kick	-10.5786
▁AND	-10.5788
▁courts	-10.5794
▁relative	-10.5796
▁judges	-10.5798
▁lift	-10.5805
▁fees	-10.5807
▁buying	-10.5809
▁Division	-10.5822
▁depression	-10.5822
▁Kingdom	-10.5823
▁Miami	-10.5824
▁Prince	-10.5825
▁Four	-10.5825
▁dedicated	-10.5825
▁programme	-10.5825
▁Spanish	-10.5826
▁Atlanta	-10.5827
▁thrown	-10.5829
▁audio	-10.5829
producing	-10.5832
▁conventional	-10.5833
▁western	-10.5833
▁frequently	-10.5835
ER	-10.5837
▁Bernie	-10.5839
.00	-10.5845
▁rarely	-10.5846
▁bike	-10.5846
▁loan	-10.5857
▁Port	-10.5859
▁Book	-10.5861
▁Liberal	-10.5861
▁implemented	-10.5861
▁shut	-10.5862
▁clock	-10.5867
▁actor	-10.587
wood	-10.587
▁bridge	-10.5873
▁wine	-10.5892
▁ruled	-10.5901
▁limits	-10.5906
▁techniques	-10.5916
▁founded	-10.5925
▁heads	-10.593
▁shell	-10.5936
set	-10.594
3.	-10.595
▁Mo	-10.5955
▁Judge	-10.5965
▁craft	-10.597
play	-10.5973
▁constant	-10.5973
▁harassment	-10.5984
▁drove	-10.5984
▁Miss	-10.5985
▁Education	-10.5985
▁Anderson	-10.5985
▁calm	-10.5986
▁Manchester	-10.5986
▁Football	-10.5987
▁39	-10.5987
▁DC	-10.5991
▁external	-10.5991
▁visible	-10.5993
▁gift	-10.5996
▁ignore	-10.5998
ned	-10.6002
hour	-10.6008
▁parliament	-10.6013
▁Test	-10.6013
▁End	-10.6016
▁narrative	-10.6018
▁admit	-10.6019
▁38	-10.6024
▁upgrade	-10.6025
▁reviews	-10.6037
▁warming	-10.6039
▁Source	-10.604
head	-10.606
▁clubs	-10.6067
▁Core	-10.6073
▁gear	-10.6078
▁components	-10.6095
ists	-10.6097
▁backed	-10.6099
▁Va	-10.6102
▁discussions	-10.6109
▁smoke	-10.6116
▁titles	-10.6121
▁protecting	-10.6128
▁crucial	-10.6133
▁striking	-10.6133
▁talked	-10.6136
▁Georgia	-10.6139
long	-10.614
▁Global	-10.6148
▁Kennedy	-10.6148
▁fault	-10.6148
▁mainstream	-10.6148
▁Agency	-10.6148
▁Beach	-10.6148
▁awareness	-10.615
▁Portland	-10.6151
▁Linux	-10.6154
▁Check	-10.6154
▁relief	-10.6155
▁Dave	-10.6155
▁restrictions	-10.6157
▁Email	-10.6157
▁format	-10.6158
▁Gary	-10.6158
▁survive	-10.6163
▁Stone	-10.617
▁PS	-10.617
▁progressive	-10.6171
▁firms	-10.6172
▁hat	-10.6177
▁Cook	-10.618
▁collected	-10.618
▁participants	-10.6185
▁seeming	-10.6185
▁province	-10.6186
▁scheme	-10.6186
▁Pi	-10.6197
▁pic	-10.6208
▁processing	-10.6217
▁1999	-10.624
▁inter	-10.6253
▁$5	-10.6261
▁aspects	-10.6265
▁acts	-10.6273
ou	-10.6283
#	-10.6284
▁wave	-10.6297
ious	-10.6298
ge	-10.63
▁bear	-10.63
▁Carl	-10.6302
▁ultimate	-10.6304
▁fat	-10.6311
▁inflation	-10.6314
▁Premier	-10.6314
▁Cleveland	-10.6314
▁genuine	-10.6314
▁okay	-10.6314
▁strict	-10.6314
▁healthcare	-10.6315
▁Lewis	-10.6316
▁automatically	-10.6317
▁Foreign	-10.6318
▁popularity	-10.6318
▁feedback	-10.632
▁$10	-10.6323
▁fallen	-10.6324
9.	-10.6324
▁Tour	-10.6328
▁Magic	-10.6329
▁snow	-10.6331
▁reads	-10.6337
▁u	-10.634
▁museum	-10.6352
▁Phil	-10.6352
▁elite	-10.6353
▁inspired	-10.6353
▁consideration	-10.6356
▁comparison	-10.6356
▁Conservative	-10.636
▁Spring	-10.6361
▁heading	-10.6364
▁deck	-10.6365
▁hero	-10.6366
sex	-10.6368
▁producer	-10.637
▁trained	-10.637
▁legally	-10.6372
au	-10.6375
▁bottle	-10.6384
▁strongly	-10.6385
▁custom	-10.6396
▁liked	-10.6403
▁7.	-10.6418
▁teach	-10.6432
ending	-10.6435
▁lab	-10.6436
▁announce	-10.6444
▁sick	-10.6451
▁2013.	-10.6452
▁attacking	-10.6456
ten	-10.6457
▁chances	-10.6459
.[	-10.6473
born	-10.6483
▁struggling	-10.6484
▁Affairs	-10.6484
▁basketball	-10.6485
▁temporary	-10.6485
▁unknown	-10.6486
▁Philadelphia	-10.6486
▁vital	-10.6486
ni	-10.6491
▁Radio	-10.6491
▁hide	-10.6492
▁abroad	-10.6493
▁honor	-10.6494
▁cutting	-10.6496
▁deeper	-10.6499
▁consistently	-10.65
▁Justin	-10.6502
▁county	-10.6505
▁normally	-10.6521
▁lawyers	-10.6523
▁scandal	-10.6525
▁interpretation	-10.6525
▁goods	-10.6526
▁framework	-10.6529
▁activist	-10.653
▁reduc	-10.6533
▁gang	-10.6535
▁API	-10.6539
▁brothers	-10.6543
▁entered	-10.6544
▁listening	-10.6544
▁achieved	-10.6547
▁refugees	-10.6553
di	-10.6554
▁river	-10.6557
▁le	-10.6567
To	-10.6575
▁lists	-10.6585
▁41	-10.6588
▁Nov	-10.6591
▁solutions	-10.6591
▁choices	-10.6592
▁journalists	-10.6598
▁Con	-10.6611
▁silence	-10.6611
▁cup	-10.6612
▁dynamic	-10.6614
▁hospitals	-10.6618
▁banking	-10.6623
ile	-10.6623
▁Civil	-10.6645
▁terrorists	-10.6645
5%	-10.6648
▁newly	-10.665
▁competitive	-10.6651
▁dinner	-10.6656
▁literature	-10.6656
▁Coast	-10.6656
▁Taylor	-10.6656
▁Development	-10.6656
▁weird	-10.6656
▁Anthony	-10.6657
▁Future	-10.6657
▁Information	-10.6657
▁taught	-10.6658
▁Netflix	-10.6658
▁classified	-10.6659
▁Southern	-10.6659
▁Main	-10.6659
▁Wisconsin	-10.666
art	-10.6661
▁transgender	-10.6661
▁personality	-10.6662
▁Head	-10.6662
▁100%	-10.6664
▁racist	-10.6664
red	-10.6665
▁discrimination	-10.667
▁Ken	-10.6671
▁Allen	-10.6676
▁Action	-10.668
▁convinced	-10.6681
bn	-10.6684
▁drama	-10.6696
▁Officer	-10.6697
run	-10.6701
▁establishment	-10.6705
▁hotel	-10.6705
▁domain	-10.6707
▁phrase	-10.6709
▁module	-10.6709
▁generated	-10.671
▁ticket	-10.6711
▁description	-10.6711
▁demands	-10.6712
▁languages	-10.6713
▁Food	-10.6715
▁flying	-10.6719
▁layer	-10.672
▁mixed	-10.6723
▁roads	-10.6729
▁Page	-10.6735
▁transform	-10.6737
▁400	-10.6745
Star	-10.6747
▁Ko	-10.6747
Reuters	-10.675
▁farm	-10.6757
ong	-10.6765
▁64	-10.6781
▁LA	-10.6789
ping	-10.6806
▁diet	-10.6807
▁fail	-10.6808
▁ideal	-10.6811
▁pack	-10.6812
▁apparent	-10.6819
▁permanent	-10.6821
▁rescue	-10.6828
▁rain	-10.6828
ntil	-10.683
ical	-10.683
▁Disney	-10.6831
▁dramatic	-10.6832
▁silent	-10.6832
▁JavaScript	-10.6832
▁Diego	-10.6832
▁unemployment	-10.6832
▁ordinary	-10.6832
▁Avenue	-10.6832
▁resistance	-10.6832
▁Mon	-10.6832
▁Las	-10.6833
▁everywhere	-10.6834
▁fantasy	-10.6834
▁Centre	-10.6834
▁organic	-10.6835
▁rent	-10.6843
▁CBS	-10.6844
▁III	-10.685
▁delivery	-10.6854
▁license	-10.6855
▁tweeted	-10.6856
▁slowly	-10.6858
▁locked	-10.6859
▁trees	-10.6861
▁symptoms	-10.6864
▁encouraged	-10.6873
▁trail	-10.6875
▁corporations	-10.6876
▁partnership	-10.6877
▁cloud	-10.688
▁array	-10.6882
▁apartment	-10.6882
▁satellite	-10.6883
▁aspect	-10.6883
▁holiday	-10.6884
▁citizen	-10.6891
▁forth	-10.6902
▁degrees	-10.6906
▁Fed	-10.6907
▁soul	-10.6909
▁eating	-10.6931
▁teaching	-10.6933
▁estimates	-10.6938
▁44	-10.6946
tan	-10.6949
▁episodes	-10.695
ize	-10.6957
▁FC	-10.6979
▁demanding	-10.6982
▁Louis	-10.699
▁fuck	-10.699
▁Real	-10.6995
▁capture	-10.6997
▁4,	-10.6998
▁incidents	-10.7005
▁racial	-10.7005
▁advertising	-10.701
▁strategies	-10.701
▁improving	-10.701
▁Rather	-10.7011
▁testimony	-10.7011
▁footage	-10.7011
▁Music	-10.7011
▁Little	-10.7012
▁Walker	-10.7013
▁Golden	-10.7013
▁decent	-10.7013
▁removal	-10.7014
▁Consider	-10.7014
▁Family	-10.7014
▁lock	-10.7015
▁contribute	-10.7015
▁bread	-10.7015
▁UFC	-10.7017
if	-10.7021
▁rapidly	-10.7022
▁discovery	-10.7023
▁dismissed	-10.7024
▁beach	-10.7024
▁retired	-10.7025
▁Series	-10.7027
▁peak	-10.703
law	-10.7036
▁Store	-10.7039
▁anybody	-10.7039
▁recall	-10.704
▁viewers	-10.7043
▁tied	-10.7043
ball	-10.7053
▁universal	-10.7055
▁Ukrainian	-10.7062
▁Championship	-10.7063
▁Greek	-10.7063
▁pounds	-10.7067
▁Iranian	-10.7071
▁printed	-10.7071
▁Start	-10.7076
▁commonly	-10.7087
▁Am	-10.71
▁comic	-10.7109
▁falls	-10.7119
▁Roman	-10.7123
▁input	-10.7132
▁petition	-10.7134
hand	-10.7149
▁bi	-10.7155
▁150	-10.7156
om	-10.7158
star	-10.7163
▁celebrate	-10.7165
▁sight	-10.7171
der	-10.7175
▁collective	-10.718
▁filter	-10.7181
▁rough	-10.7188
▁guitar	-10.7189
▁tomorrow	-10.7192
▁Gordon	-10.7192
▁Below	-10.7192
▁elsewhere	-10.7193
▁dance	-10.7194
▁dating	-10.7194
▁smoking	-10.7196
▁medium	-10.7197
▁Everyone	-10.7197
▁behaviour	-10.7197
▁hidden	-10.7197
ence	-10.7199
▁lowest	-10.7199
▁LGBT	-10.72
▁Moon	-10.72
▁Sometimes	-10.7201
▁colors	-10.7204
▁carefully	-10.7204
▁Mayor	-10.7207
orog	-10.7208
▁invited	-10.7209
▁predict	-10.7216
▁granted	-10.7216
▁employed	-10.7218
▁gains	-10.7223
Caption	-10.7226
▁engineering	-10.7226
▁keeps	-10.7232
▁monitoring	-10.7234
ci	-10.7235
▁experiments	-10.724
▁membership	-10.7241
▁odd	-10.7245
▁shelter	-10.7247
fi	-10.7247
▁association	-10.7249
▁leg	-10.7249
▁handed	-10.7249
▁Olympic	-10.725
foot	-10.7252
▁neighbor	-10.7252
▁component	-10.7253
▁Nation	-10.7254
▁Steven	-10.7257
imed	-10.7259
▁auto	-10.726
▁tracks	-10.7267
▁affairs	-10.7268
▁Rick	-10.727
▁foundation	-10.7271
▁2012,	-10.7271
▁visited	-10.7278
▁writers	-10.7286
month	-10.7287
▁employers	-10.7296
▁van	-10.7299
▁el	-10.7306
well	-10.7313
▁Row	-10.7314
▁j	-10.7315
▁situations	-10.732
▁Marine	-10.7321
use	-10.7323
▁tickets	-10.7325
▁checks	-10.7327
▁sky	-10.7327
▁Mars	-10.7332
▁shit	-10.7338
▁55	-10.734
▁Aug	-10.7348
▁investigate	-10.735
▁requests	-10.7351
▁www	-10.7355
▁wonderful	-10.7364
▁rapid	-10.7365
▁stem	-10.7369
▁export	-10.7371
▁Minnesota	-10.7371
▁temperatures	-10.7373
▁6,	-10.7373
▁Join	-10.7375
▁Francis	-10.7376
neath	-10.7377
▁Again	-10.7377
▁Chelsea	-10.7377
▁spokesperson	-10.7377
▁closing	-10.7377
▁categories	-10.7377
▁personnel	-10.7378
▁unclear	-10.7378
▁entitled	-10.7378
▁baseball	-10.7378
▁Howard	-10.7379
▁Hide	-10.7379
▁Battle	-10.7379
▁shares	-10.738
▁barely	-10.7383
▁presentation	-10.7385
▁Field	-10.7386
▁wider	-10.739
▁Download	-10.7391
▁proven	-10.7394
ford	-10.7395
▁commission	-10.7398
▁wing	-10.7399
▁gathered	-10.7402
▁sequence	-10.7411
▁(2	-10.7415
mon	-10.7419
▁recommended	-10.742
▁Graham	-10.7422
hi	-10.7425
-4	-10.7427
▁Governor	-10.7429
▁Code	-10.7435
▁deficit	-10.7435
▁donations	-10.7436
▁accident	-10.7437
▁championship	-10.7437
▁resident	-10.7439
war	-10.7441
▁menu	-10.7441
▁improvement	-10.7445
▁serving	-10.7448
▁arrival	-10.7448
▁senator	-10.7449
▁ships	-10.7457
▁throwing	-10.7462
▁del	-10.7465
▁featur	-10.7476
board	-10.7476
world	-10.7478
▁responses	-10.7493
▁dad	-10.7502
view	-10.7515
▁mon	-10.7518
▁dozens	-10.753
▁journalist	-10.7532
▁Pan	-10.7536
▁lett	-10.7536
work	-10.7538
▁convince	-10.754
▁thin	-10.7546
con	-10.7548
▁sad	-10.755
▁frequent	-10.7553
▁mistakes	-10.7559
▁Trade	-10.7562
▁prepar	-10.7563
▁Pennsylvania	-10.7566
▁Stadium	-10.7566
▁trillion	-10.7566
▁Bureau	-10.7566
▁Community	-10.7566
▁Denver	-10.7566
▁McCain	-10.7566
▁Scottish	-10.7567
▁keyboard	-10.7567
▁engagement	-10.7567
▁Tower	-10.7568
▁NSA	-10.7568
▁twenty	-10.7568
▁Harry	-10.7569
▁Would	-10.7569
▁balls	-10.7572
▁Through	-10.7573
▁motivated	-10.7574
▁evolved	-10.7575
▁Sony	-10.7576
▁Five	-10.7578
▁scope	-10.758
▁neck	-10.7581
▁Vegas	-10.7582
▁distributed	-10.7584
▁repeated	-10.7586
▁websites	-10.7589
▁origin	-10.7592
mm	-10.7598
▁Jose	-10.7602
▁deserve	-10.7603
▁mountain	-10.7604
▁graduate	-10.7606
▁trick	-10.7609
don	-10.7615
▁failing	-10.7615
▁introduce	-10.7615
ek	-10.7619
▁dogs	-10.762
▁configuration	-10.7623
▁stadium	-10.7625
▁Silver	-10.7627
▁Matthew	-10.7632
▁household	-10.7643
▁mom	-10.7644
▁Point	-10.7648
▁depends	-10.7648
▁tape	-10.7655
▁headed	-10.7659
▁ranks	-10.7661
▁im	-10.7665
▁violations	-10.7672
party	-10.7684
▁Design	-10.7687
▁Its	-10.7693
▁stone	-10.7703
▁machines	-10.7715
ino	-10.7716
▁Di	-10.7718
hu	-10.7724
air	-10.7724
▁witness	-10.7727
▁obtain	-10.773
▁Po	-10.7741
▁1998	-10.7743
▁quiet	-10.7746
▁referr	-10.775
▁burn	-10.7751
▁na	-10.7754
▁efficient	-10.7755
▁shock	-10.7756
▁independence	-10.7758
▁salary	-10.7758
▁blockchain	-10.7758
▁spokeswoman	-10.7759
▁Xbox	-10.7759
▁Square	-10.7759
▁Doctor	-10.7759
▁funny	-10.7759
▁Navy	-10.7759
▁retirement	-10.7759
▁jury	-10.7762
▁handful	-10.7762
▁somehow	-10.7762
▁Comey	-10.7764
▁Additionally	-10.7764
▁Modern	-10.7764
▁sorry	-10.7764
▁Earlier	-10.7765
▁Gaza	-10.7766
▁Chairman	-10.7766
▁Station	-10.7766
▁creates	-10.7768
▁losses	-10.7771
▁acknowledged	-10.7775
▁inches	-10.7775
▁investigators	-10.7779
▁coast	-10.7789
▁Down	-10.7792
hether	-10.7796
▁Ali	-10.7796
▁Inter	-10.7798
▁3-	-10.7798
▁demonstrate	-10.7798
op	-10.7803
▁shoulder	-10.7805
▁$3	-10.7805
▁assumed	-10.7805
▁defeated	-10.7807
▁negotiations	-10.7807
▁43	-10.7822
▁nominee	-10.7823
▁reforms	-10.7824
▁Town	-10.7827
▁missile	-10.7827
▁campaigns	-10.783
▁Queen	-10.7832
▁singer	-10.7841
▁decrease	-10.7842
▁receiver	-10.7843
ory	-10.785
▁da	-10.7857
▁lights	-10.7859
▁Ross	-10.7861
▁ease	-10.7863
▁rush	-10.7867
▁commit	-10.7871
ai	-10.7873
▁fighter	-10.7891
ex	-10.79
▁Anna	-10.7903
▁Has	-10.7907
▁Mad	-10.7911
▁searching	-10.7917
▁Da	-10.7917
▁exploit	-10.7924
▁sharp	-10.7933
her	-10.7934
ol	-10.7945
▁2012.	-10.795
▁comfort	-10.7952
▁stupid	-10.7953
▁stations	-10.7953
▁intent	-10.7954
▁anniversary	-10.7954
▁concrete	-10.7954
▁studied	-10.7954
▁tweet	-10.7955
▁Harvard	-10.7955
▁Vancouver	-10.7955
▁Baltimore	-10.7955
▁Beijing	-10.7957
▁referendum	-10.7957
▁biological	-10.7957
▁Alexander	-10.7957
▁Management	-10.7957
▁Atlantic	-10.7958
▁captain	-10.7958
▁universities	-10.7958
▁Python	-10.7958
▁Su	-10.7961
▁shopping	-10.7961
▁humanity	-10.7962
▁static	-10.7965
▁criticized	-10.7966
▁hitting	-10.7966
▁spin	-10.7969
▁exclusively	-10.7971
▁Ray	-10.7972
▁wounded	-10.7973
▁Greg	-10.7975
▁blast	-10.7975
ated	-10.7983
ological	-10.7987
ard	-10.7987
▁upper	-10.7987
▁Sir	-10.7989
▁acquired	-10.7991
▁Bridge	-10.7998
▁gross	-10.8001
▁circle	-10.8003
▁ratio	-10.8006
▁Plan	-10.8014
0000000000000150	-10.8014
▁rolling	-10.8016
▁plastic	-10.8022
▁genes	-10.8023
▁airport	-10.8024
▁var	-10.8025
▁possession	-10.8026
▁representative	-10.8028
▁relation	-10.8028
▁Award	-10.8035
▁parent	-10.804
▁regulation	-10.8042
▁tall	-10.8042
ised	-10.8044
▁foods	-10.8053
▁Area	-10.8059
▁savings	-10.806
round	-10.8061
▁75	-10.8062
▁amid	-10.8063
▁Line	-10.8068
ina	-10.8069
http	-10.8073
▁indicates	-10.8078
▁bound	-10.8082
▁tonight	-10.8084
PV	-10.8086
▁Call	-10.8094
▁raid	-10.8108
▁complaints	-10.8116
▁bars	-10.8117
more	-10.8119
▁adopt	-10.8122
▁float	-10.8125
▁profits	-10.8129
▁differ	-10.8131
▁compare	-10.8134
▁Reddit	-10.8135
▁breaks	-10.8139
▁Ad	-10.8144
▁Christians	-10.8144
▁Update	-10.8145
▁52	-10.815
▁proposals	-10.8152
▁arguing	-10.8154
▁consensus	-10.8154
▁widespread	-10.8154
▁Watson	-10.8154
▁diversity	-10.8155
▁Jerusalem	-10.8155
▁Lawrence	-10.8155
▁Oklahoma	-10.8155
▁beauty	-10.8155
▁Obamacare	-10.8156
▁transformation	-10.8156
▁documentary	-10.8156
▁notion	-10.8156
▁Liverpool	-10.8157
▁capitalism	-10.8157
▁Freedom	-10.8159
▁Tony	-10.8161
▁followers	-10.8163
▁precisely	-10.8163
▁monitor	-10.8164
▁tries	-10.8165
▁spoken	-10.8167
▁moon	-10.817
▁sensitive	-10.8174
▁divided	-10.8178
ger	-10.8182
▁adopted	-10.8182
▁assist	-10.8187
▁pm	-10.8191
▁fantastic	-10.8192
▁eastern	-10.8195
▁insisted	-10.8197
word	-10.8201
era	-10.8202
▁suspected	-10.8204
▁thread	-10.8205
▁privilege	-10.8206
▁cat	-10.8206
▁stages	-10.8208
ig	-10.8216
▁margin	-10.8224
water	-10.8226
▁implementation	-10.8227
▁representation	-10.8227
▁substance	-10.8228
▁Iraqi	-10.823
▁chart	-10.8233
▁helpful	-10.8233
▁Credit	-10.8233
▁finger	-10.824
▁requested	-10.8242
▁#1	-10.8245
▁contained	-10.8246
▁movements	-10.8252
▁instances	-10.8263
▁performing	-10.827
▁65	-10.8271
▁Care	-10.8274
known	-10.8275
ak	-10.8283
▁thick	-10.829
▁6.	-10.8292
▁counsel	-10.8296
5000000000000151	-10.8298
▁Roberts	-10.83
▁addressed	-10.8305
▁Wood	-10.8309
ti	-10.8317
▁fears	-10.8317
pe	-10.833
▁torture	-10.8334
▁inform	-10.8336
▁2:	-10.8342
▁minds	-10.8346
ud	-10.8346
▁maps	-10.8347
▁3,	-10.8351
▁spaces	-10.8353
▁Josh	-10.8357
▁repeat	-10.8357
▁diplomatic	-10.8358
▁Galaxy	-10.8358
▁challenging	-10.8358
▁cheese	-10.8358
▁utility	-10.8358
▁principal	-10.8359
▁transportation	-10.8359
▁Alabama	-10.8359
▁Missouri	-10.8359
▁Moscow	-10.8359
▁Orlando	-10.8359
▁destruction	-10.8359
▁encouraging	-10.8359
▁Greece	-10.8359
▁Ministry	-10.836
▁confirm	-10.8361
▁equality	-10.8361
▁Marvel	-10.8362
▁ESPN	-10.8363
▁absence	-10.8364
▁ocean	-10.8364
▁diverse	-10.8364
▁remarkable	-10.8366
▁samples	-10.8367
▁Feb	-10.8374
▁clinical	-10.8377
▁lucky	-10.8378
▁implications	-10.8378
▁Tech	-10.8379
▁forest	-10.8383
▁Box	-10.8384
▁theories	-10.8389
▁Nor	-10.8389
▁meal	-10.8391
▁anger	-10.8394
kin	-10.8396
▁struggles	-10.8399
▁Indiana	-10.84
▁Palestinians	-10.8406
▁Ka	-10.8407
▁indicated	-10.8407
▁Review	-10.8407
▁tactics	-10.8416
ya	-10.8417
▁Final	-10.8423
▁intellectual	-10.8424
▁convention	-10.8424
▁objective	-10.8426
ray	-10.8427
▁Ba	-10.8429
▁indicate	-10.8431
ypically	-10.8432
▁filing	-10.8437
So	-10.8437
▁recipe	-10.8439
▁mechanism	-10.8439
▁perception	-10.8441
▁sits	-10.8441
▁passengers	-10.8442
▁mask	-10.8442
▁chapter	-10.8444
▁Player	-10.8449
▁rebels	-10.8452
▁Reuters	-10.8454
▁rear	-10.8462
▁managers	-10.8463
▁sheet	-10.8476
▁subjects	-10.8478
.[1]	-10.8483
▁stored	-10.8485
300	-10.8487
life	-10.8497
my	-10.8511
▁lands	-10.8515
▁detect	-10.8546
vi	-10.8548
▁trans	-10.855
rate	-10.8553
▁absolute	-10.856
▁god	-10.856
▁sweet	-10.8561
▁plain	-10.8562
▁valid	-10.8563
▁Medicaid	-10.8567
▁wisdom	-10.8567
▁Reagan	-10.8567
▁stability	-10.8567
▁charity	-10.8567
▁landing	-10.8567
▁cooperation	-10.8567
▁Antonio	-10.8567
▁asks	-10.8567
▁custody	-10.8568
▁Financial	-10.8569
▁invasion	-10.8569
que	-10.8571
▁Third	-10.8571
▁firing	-10.8571
▁virus	-10.8571
▁Rose	-10.8572
▁Massachusetts	-10.8573
▁9/11	-10.8573
▁Oakland	-10.8573
▁suspended	-10.8576
▁Therefore	-10.8577
▁cited	-10.8579
▁Try	-10.858
▁void	-10.8581
▁attached	-10.8581
▁prototype	-10.8582
▁endorse	-10.8585
▁focusing	-10.8585
▁pour	-10.8585
▁coaches	-10.8586
▁offices	-10.8586
▁predicted	-10.8598
▁imposed	-10.8599
▁questioned	-10.8606
▁7,	-10.8617
▁hunt	-10.8618
▁visitors	-10.862
▁prize	-10.8623
▁estimate	-10.8627
▁streaming	-10.863
▁athletes	-10.8632
▁grant	-10.8634
▁walls	-10.864
▁Mexican	-10.8642
▁fruit	-10.8644
▁Article	-10.8647
▁judgment	-10.8647
▁pipeline	-10.8648
▁segment	-10.8648
▁monster	-10.8651
▁smartphone	-10.8651
▁guest	-10.8652
▁Sure	-10.866
▁unions	-10.8663
▁challenged	-10.8664
▁bug	-10.8667
some	-10.8668
▁Support	-10.8671
▁servers	-10.8674
▁settings	-10.8675
▁discussing	-10.8679
▁46	-10.8686
▁contributions	-10.8687
▁Way	-10.869
▁rivals	-10.869
▁representatives	-10.8701
▁En	-10.8704
▁gather	-10.8705
▁Pat	-10.872
▁IS	-10.8722
ran	-10.873
▁actors	-10.8735
▁veterans	-10.8747
▁Arm	-10.8748
▁GM	-10.8751
▁alarm	-10.8751
▁mere	-10.8754
▁Kong	-10.876
appointed	-10.8761
ring	-10.8765
▁legitimate	-10.8766
▁desperate	-10.8767
▁peaceful	-10.8767
▁careful	-10.8771
▁tower	-10.8774
▁subscribe	-10.8779
▁humor	-10.8779
▁Vietnam	-10.8779
▁Contact	-10.8779
▁ceremony	-10.8779
▁replied	-10.8779
▁summit	-10.878
▁presidency	-10.878
▁Policy	-10.878
▁involvement	-10.878
▁Museum	-10.878
▁iconic	-10.878
▁branch	-10.8781
▁lady	-10.8781
▁junior	-10.8782
▁consent	-10.8782
▁Local	-10.8782
▁adoption	-10.8783
▁1993	-10.8783
▁Malaysia	-10.8783
▁underground	-10.8783
▁Early	-10.8784
▁Luke	-10.8786
▁comedy	-10.8786
▁begun	-10.8792
gate	-10.8792
▁ABC	-10.8797
200	-10.8797
▁Gen	-10.8797
▁usage	-10.8798
▁refuse	-10.8808
▁drives	-10.881
▁riding	-10.8819
script	-10.8826
▁Full	-10.8826
▁plate	-10.8828
▁struggled	-10.8834
▁naturally	-10.8835
▁Side	-10.8836
▁burning	-10.8836
▁recognized	-10.8837
▁logo	-10.8838
▁hire	-10.8839
▁Change	-10.8852
▁brutal	-10.8856
▁Jean	-10.8857
▁innocent	-10.8862
▁impression	-10.8863
▁soil	-10.8863
▁destination	-10.8866
▁newsletter	-10.8869
▁rival	-10.8869
▁alert	-10.8872
▁Light	-10.8873
▁technique	-10.8876
▁tips	-10.8878
▁funded	-10.8882
▁prosecutors	-10.8883
▁Lo	-10.8887
▁Mrs	-10.889
▁Na	-10.8894
▁Figure	-10.8897
▁entering	-10.8904
▁paint	-10.8908
▁Ed	-10.8913
▁assists	-10.8915
slide	-10.8915
▁26,	-10.8918
▁IN	-10.8918
▁dress	-10.8919
▁theater	-10.8933
ay	-10.8935
▁interpret	-10.8941
▁producers	-10.8943
▁10-	-10.8944
▁politically	-10.8946
▁structures	-10.8947
▁importantly	-10.8952
▁Think	-10.8952
▁Clark	-10.8954
inary	-10.8961
ft	-10.8966
▁accomplish	-10.8968
low	-10.897
▁exception	-10.8973
▁Speak	-10.8978
▁loud	-10.8985
▁bonus	-10.8994
▁likes	-10.8995
▁comprehensive	-10.8997
▁propaganda	-10.8997
▁supplies	-10.8997
▁Elizabeth	-10.8997
▁dialogue	-10.8997
▁desktop	-10.8997
▁timing	-10.8997
▁investigating	-10.8997
▁Death	-10.8997
▁Academy	-10.8997
▁Authority	-10.8997
▁efficiency	-10.8997
▁ages	-10.8999
▁Hong	-10.8999
▁Instagram	-10.9
▁Sweden	-10.9
▁suspicious	-10.9
▁NATO	-10.9
▁Assembly	-10.9
▁entertainment	-10.9
▁Simon	-10.9002
▁Ruby	-10.9002
▁Everything	-10.9003
▁brown	-10.9004
▁respectively	-10.9005
▁mouse	-10.9007
▁MORE	-10.9007
▁Total	-10.9007
▁fiction	-10.9009
▁math	-10.9011
▁ratings	-10.9012
▁Cloud	-10.9013
▁Sean	-10.9017
▁appearances	-10.9024
▁correctly	-10.9024
▁recovered	-10.9024
▁Forest	-10.9026
▁mis	-10.9026
▁remarks	-10.903
▁2019	-10.9031
▁alter	-10.9032
▁47	-10.9035
▁engaged	-10.9037
▁info	-10.9038
▁Philippines	-10.9043
-12	-10.9043
▁CA	-10.9046
▁bio	-10.9048
▁patent	-10.906
▁talented	-10.9064
▁AI	-10.9065
▁eggs	-10.9069
▁errors	-10.9071
▁advocate	-10.9073
gen	-10.9073
ns	-10.9074
▁photograph	-10.9074
▁headlines	-10.9078
▁fate	-10.9079
▁affordable	-10.9084
▁venture	-10.9084
▁adventure	-10.9085
▁providers	-10.9089
▁signature	-10.9092
▁crossing	-10.9093
▁Edward	-10.9093
▁Hunter	-10.9093
▁Intel	-10.9094
▁contribution	-10.9095
▁Rogers	-10.9097
sized	-10.91
▁Shin	-10.91
▁Chi	-10.91
▁Nazi	-10.9102
▁contacted	-10.9111
▁sole	-10.9113
▁voter	-10.9117
2)	-10.9125
▁Java	-10.9133
With	-10.914
▁succeed	-10.9142
▁monthly	-10.9144
▁spots	-10.9167
▁Ne	-10.9169
▁sorts	-10.917
name	-10.9171
▁labour	-10.9177
either	-10.9186
▁transport	-10.919
bar	-10.9196
▁Wi	-10.9202
▁brilliant	-10.9205
▁formula	-10.9205
GB	-10.9206
▁practical	-10.9206
▁joy	-10.9207
▁inner	-10.9207
▁shame	-10.921
▁ear	-10.9212
▁Libya	-10.9214
min	-10.9214
▁journal	-10.9215
▁favour	-10.9217
▁Jeremy	-10.9219
▁centuries	-10.9219
▁phenomenon	-10.9219
▁welfare	-10.9219
▁Montreal	-10.9219
▁stance	-10.9219
▁Duke	-10.9219
html	-10.9219
▁inquiry	-10.9219
▁restaurants	-10.922
▁raw	-10.922
▁Nevada	-10.922
▁conspiracy	-10.922
▁criteria	-10.922
▁chest	-10.9221
▁Fair	-10.9221
▁orange	-10.9222
▁promoting	-10.9222
▁Hitler	-10.9222
▁Capital	-10.9222
▁sufficient	-10.9223
▁yellow	-10.9224
▁convicted	-10.9225
▁promising	-10.9225
▁passes	-10.9234
▁Master	-10.9237
▁Alan	-10.9238
▁abandoned	-10.9239
▁angry	-10.9239
▁2017,	-10.9248
▁None	-10.9253
▁picking	-10.9253
▁reward	-10.9255
▁outlets	-10.9265
ow	-10.9266
▁App	-10.9276
▁gained	-10.9277
▁OS	-10.9278
▁couples	-10.9279
▁recommendations	-10.9281
▁salt	-10.9283
key	-10.9283
▁worker	-10.9284
▁loaded	-10.9284
▁notable	-10.9285
▁guarantee	-10.9288
▁encounter	-10.9288
▁Model	-10.9293
▁belong	-10.9295
▁musical	-10.9306
")	-10.9306
▁Hal	-10.9311
▁landscape	-10.9314
▁alliance	-10.9318
▁initiative	-10.9318
▁passion	-10.9319
▁violation	-10.932
▁scientist	-10.9321
▁associate	-10.9323
▁employer	-10.9325
▁resource	-10.9326
▁rail	-10.9334
▁2.5	-10.9342
▁suggesting	-10.9343
▁voices	-10.9343
ade	-10.9349
▁towns	-10.935
▁interviewed	-10.9368
▁recover	-10.937
▁gathering	-10.937
making	-10.9371
▁neighbors	-10.9374
▁register	-10.9377
▁generations	-10.9379
▁Class	-10.9379
po	-10.9381
▁belt	-10.9382
▁traded	-10.9383
▁Kings	-10.9383
▁log	-10.9384
▁openly	-10.9387
▁waves	-10.9391
▁oppos	-10.9397
that	-10.9399
▁pump	-10.94
▁emerge	-10.9401
▁%	-10.9401
▁waters	-10.9404
▁conservatives	-10.9416
▁punish	-10.9417
▁expects	-10.9419
▁translate	-10.9419
▁tracking	-10.9421
▁investments	-10.9422
6.	-10.9429
▁cyber	-10.9436
▁Drive	-10.9444
▁competing	-10.9446
▁Phoenix	-10.9446
▁introduction	-10.9446
▁overseas	-10.9446
▁compensation	-10.9446
▁agriculture	-10.9447
▁legislative	-10.9447
▁NHL	-10.9447
▁journalism	-10.9447
▁revolutionary	-10.9448
▁mood	-10.9448
▁Carter	-10.9449
▁Digital	-10.9449
▁Larry	-10.9449
▁reliable	-10.9451
▁evident	-10.9452
▁Front	-10.9452
▁modest	-10.9453
▁Library	-10.9453
▁overwhelming	-10.9454
▁cage	-10.9454
▁Auto	-10.9456
▁bench	-10.9457
▁headquarters	-10.9457
▁10,000	-10.9457
▁Rob	-10.9459
▁Brady	-10.9459
▁channels	-10.9462
▁Turn	-10.9462
▁Wang	-10.9463
▁populations	-10.9463
▁hang	-10.9465
▁wealthy	-10.9465
▁accessible	-10.9465
▁rose	-10.9469
▁educational	-10.9473
US	-10.9474
▁lineup	-10.9475
▁demonstrated	-10.948
▁rooms	-10.9483
▁controls	-10.9487
▁breath	-10.9487
▁sixth	-10.9488
ourtesy	-10.949
▁rolled	-10.949
▁stressed	-10.9491
▁drew	-10.9494
▁promoted	-10.9502
▁robot	-10.9502
▁Sport	-10.9508
▁difficulty	-10.9511
▁Bears	-10.9512
king	-10.9515
vo	-10.9518
▁dis	-10.9525
▁29,	-10.9526
▁tons	-10.9527
▁Mi	-10.9529
▁environments	-10.9531
▁pleased	-10.9535
▁Hospital	-10.9542
ick	-10.9553
▁assessment	-10.9553
▁civilian	-10.9554
▁mirror	-10.9555
2000000000000151	-10.9556
▁analyst	-10.9556
▁girlfriend	-10.9559
▁Saints	-10.956
ja	-10.9561
▁2017.	-10.9562
▁Cooper	-10.9562
▁birds	-10.9567
-5	-10.9571
▁speaker	-10.9571
▁analysts	-10.9572
▁peer	-10.9573
▁logic	-10.9575
▁friendly	-10.9575
▁races	-10.9578
▁Convention	-10.9578
▁advocates	-10.958
▁tweets	-10.9591
▁Being	-10.9593
▁Bad	-10.9594
▁Cross	-10.9594
million	-10.9598
▁households	-10.9599
left	-10.9599
▁socialist	-10.9604
yard	-10.9605
▁answered	-10.9606
▁dates	-10.9609
▁brands	-10.9621
▁Later	-10.9621
▁1992	-10.9623
▁requir	-10.9625
▁arts	-10.9628
coming	-10.9628
pped	-10.963
▁stayed	-10.963
▁targeting	-10.9638
▁bands	-10.9645
▁employ	-10.9647
▁Wild	-10.9648
0,000	-10.965
▁Fund	-10.9653
▁appreciate	-10.9653
▁transit	-10.9664
▁expose	-10.9666
▁substantial	-10.9669
▁constitute	-10.9672
▁Kill	-10.9675
▁ideology	-10.9679
▁legacy	-10.9679
▁libraries	-10.9679
▁Festival	-10.9679
▁Studies	-10.9679
▁interior	-10.9679
▁hiring	-10.9679
▁mutual	-10.9679
▁glad	-10.9679
▁mandate	-10.9679
ik	-10.9679
▁psychological	-10.9679
▁Know	-10.9679
▁Singh	-10.9679
▁significance	-10.9679
▁dramatically	-10.968
▁iOS	-10.968
▁Madrid	-10.968
▁dying	-10.968
▁Delhi	-10.968
▁editorial	-10.968
▁Illinois	-10.9681
▁integration	-10.9681
▁birthday	-10.9681
▁Mississippi	-10.9682
▁Gulf	-10.9682
▁Rice	-10.9682
▁unprecedented	-10.9684
▁assembly	-10.9684
▁subtle	-10.9684
▁recession	-10.9686
▁tap	-10.9693
▁Pa	-10.9696
▁Training	-10.9701
▁dig	-10.9702
▁Ann	-10.9704
ions	-10.9707
▁guaranteed	-10.9708
▁Bond	-10.9712
▁remov	-10.9732
▁59	-10.9732
▁painful	-10.9733
ups	-10.9734
lan	-10.9738
ms	-10.9741
▁Work	-10.9745
▁stops	-10.9748
▁handled	-10.9751
▁1995	-10.9754
▁arrive	-10.9761
active	-10.9762
▁Students	-10.9762
▁blocked	-10.9765
ura	-10.9766
▁expanding	-10.9767
▁aims	-10.9773
▁lying	-10.9784
▁sand	-10.9785
regulatory	-10.9786
▁innovation	-10.9786
▁expense	-10.9789
▁interaction	-10.979
▁measured	-10.9791
▁lifestyle	-10.9791
▁shadow	-10.9791
post	-10.9797
car	-10.9801
▁IP	-10.9801
▁2)	-10.9802
▁probe	-10.9804
istic	-10.9806
ana	-10.9811
▁hall	-10.9815
▁saving	-10.9816
TV	-10.9823
▁tag	-10.9823
▁Boy	-10.9824
▁22,	-10.9828
▁Jo	-10.9829
who	-10.984
ron	-10.984
▁Revolution	-10.984
▁legs	-10.9848
ok	-10.9848
▁asset	-10.9858
▁pile	-10.9863
▁51	-10.9865
light	-10.9868
At	-10.987
▁Ro	-10.9871
▁Hell	-10.9873
▁transactions	-10.9875
▁launching	-10.9883
▁Control	-10.9885
▁silver	-10.9887
px	-10.9887
▁resume	-10.9887
▁serves	-10.989
▁desert	-10.9891
▁feelings	-10.9892
▁resolve	-10.9894
▁outline	-10.9896
▁Mel	-10.9902
▁outcomes	-10.9903
can	-10.9905
▁Bu	-10.9909
izing	-10.9909
▁1)	-10.9913
▁interviews	-10.9913
▁distinct	-10.9915
▁Hampshire	-10.9917
▁inevitable	-10.9917
▁robust	-10.9917
▁Hamilton	-10.9917
▁pregnant	-10.9917
▁Tyler	-10.9917
▁iPad	-10.9917
▁permitted	-10.9917
▁capability	-10.9918
▁Sarah	-10.9918
▁pride	-10.9918
▁hockey	-10.9918
▁memories	-10.9918
▁puck	-10.9918
▁threw	-10.9919
▁Brexit	-10.992
▁circuit	-10.992
▁abilities	-10.992
▁survival	-10.992
▁yeah	-10.992
▁simultaneously	-10.9922
▁Dead	-10.9922
▁GDP	-10.9922
▁Orleans	-10.9923
▁Aaron	-10.9924
▁hoped	-10.9925
▁Roy	-10.9925
▁dish	-10.9926
▁Official	-10.9926
▁prompted	-10.9933
▁Building	-10.9933
▁lean	-10.9935
▁beta	-10.9936
▁Manager	-10.9937
▁Rome	-10.9937
▁notably	-10.9937
▁Pope	-10.9937
1000000000000147	-10.9938
▁topics	-10.9944
▁AM	-10.9946
▁Per	-10.995
▁Things	-10.9951
▁mini	-10.996
▁flood	-10.996
▁invested	-10.9963
▁intake	-10.9966
("	-10.9968
▁hunting	-10.9969
▁execution	-10.9972
size	-10.9972
test	-10.9976
▁Hey	-10.9981
▁Members	-10.9984
▁sexually	-10.9988
▁600	-10.9993
▁sin	-10.9994
▁Classic	-10.9994
▁maintained	-11.002
▁residential	-11.0022
▁Program	-11.0022
▁1996	-11.0024
chi	-11.0027
▁oppose	-11.0028
▁genre	-11.0029
▁Dream	-11.0032
▁laptop	-11.0033
▁provision	-11.0034
▁protocol	-11.0034
▁diseases	-11.0035
▁lessons	-11.0036
▁electronic	-11.0037
▁smile	-11.0038
▁gene	-11.0039
.[2]	-11.0041
▁regarded	-11.0046
ru	-11.0054
▁Reed	-11.0055
▁bird	-11.0059
▁pan	-11.0065
▁lighting	-11.0075
▁72	-11.0076
▁beef	-11.0078
▁tasks	-11.0079
iness	-11.0082
▁comics	-11.0086
uk	-11.0086
▁billions	-11.0087
▁odds	-11.0089
▁swing	-11.0094
▁20-	-11.0096
7000000000000151	-11.0098
▁Mass	-11.0105
int	-11.0114
▁flash	-11.0118
new	-11.0119
▁sum	-11.0121
▁occupie	-11.0131
▁tens	-11.0132
▁professionals	-11.0134
▁restrict	-11.0135
▁recording	-11.0136
▁speaks	-11.0144
▁subsequent	-11.0148
▁Run	-11.0148
LY	-11.015
▁continuous	-11.0153
▁nervous	-11.016
▁illness	-11.016
▁spiritual	-11.016
▁Should	-11.0161
▁Manhattan	-11.0161
▁Pentagon	-11.0161
▁emerging	-11.0161
▁industries	-11.0161
▁repeal	-11.0161
▁capabilities	-11.0161
▁recognition	-11.0161
▁Abdullah	-11.0161
▁racing	-11.0161
▁unexpected	-11.0161
▁weekly	-11.0161
▁Berlin	-11.0161
▁congressional	-11.0161
▁Tampa	-11.0161
▁comparable	-11.0162
▁Round	-11.0162
▁overcome	-11.0163
▁Capitol	-11.0164
▁WATCH	-11.0164
▁productivity	-11.0164
▁Flash	-11.0164
▁Robinson	-11.0164
inch	-11.0166
▁periods	-11.0167
▁chase	-11.0167
▁Independent	-11.0167
▁therapy	-11.0168
▁1991	-11.017
▁eager	-11.017
▁broader	-11.017
▁handling	-11.0171
▁acres	-11.0172
▁bitter	-11.0172
▁Dutch	-11.0173
▁compelling	-11.0174
▁seized	-11.0175
▁2014.	-11.0176
▁hopefully	-11.0179
▁Jake	-11.018
▁Assad	-11.018
▁Salt	-11.0182
▁dependent	-11.0183
▁1,000	-11.0184
▁artificial	-11.0185
▁deployed	-11.0187
▁statistical	-11.0187
▁bin	-11.0187
▁Abu	-11.0188
▁Cuban	-11.0189
▁administrative	-11.0189
▁Rich	-11.019
▁memo	-11.019
▁stating	-11.019
▁upset	-11.0191
stone	-11.0194
▁investigated	-11.0198
news	-11.0199
▁experimental	-11.0199
▁mining	-11.02
▁delegates	-11.0204
▁sentenced	-11.0209
3%	-11.021
▁pen	-11.0219
our	-11.0219
▁RB	-11.022
▁engineer	-11.022
▁panic	-11.0221
▁Jets	-11.0221
kg	-11.0235
▁Give	-11.0243
▁reflected	-11.0244
▁promotion	-11.0246
ga	-11.0246
▁para	-11.0248
▁19,	-11.0248
▁defending	-11.0252
▁dispute	-11.0255
▁covers	-11.0263
▁Bell	-11.0264
▁Lu	-11.0265
▁trends	-11.0267
▁Mak	-11.0271
▁premium	-11.0277
▁deadline	-11.0279
▁procedure	-11.0283
▁AL	-11.0284
▁span	-11.0285
▁ballot	-11.0286
▁damaged	-11.0286
ez	-11.0287
▁rocket	-11.0288
js	-11.0295
▁controller	-11.0297
wise	-11.0302
▁institution	-11.0303
▁concerning	-11.0304
▁toxic	-11.0306
page	-11.0308
ini	-11.0313
ctively	-11.0314
▁2008.	-11.0317
let	-11.0318
All	-11.0318
▁Far	-11.0319
season	-11.0322
▁knee	-11.0323
▁submit	-11.0329
from	-11.0333
ES	-11.0344
▁ha	-11.0344
▁weigh	-11.0348
▁rid	-11.035
4000000000000152	-11.035
ney	-11.0352
▁loans	-11.0357
▁fatal	-11.0365
▁Command	-11.0368
list	-11.0372
▁smooth	-11.0376
▁attractive	-11.0378
▁27,	-11.0379
▁Canadians	-11.0381
▁Rs	-11.0382
▁communicate	-11.0383
▁sacrifice	-11.0386
-8	-11.0398
▁com	-11.0399
▁anonymous	-11.0407
▁Harris	-11.0408
lying	-11.0409
▁Brooklyn	-11.041
▁Ferguson	-11.0411
▁mystery	-11.0411
▁Performance	-11.0411
▁conversion	-11.0411
▁keen	-11.0411
▁Roll	-11.0411
▁scrutiny	-11.0412
▁PlayStation	-11.0412
▁epic	-11.0412
▁Military	-11.0412
▁occupation	-11.0413
▁Environmental	-11.0414
▁commentary	-11.0414
▁excessive	-11.0414
▁Short	-11.0414
mi	-11.0415
▁dust	-11.0416
▁punishment	-11.0416
▁Ocean	-11.0416
▁Gear	-11.0416
▁Lady	-11.0417
▁Turner	-11.0417
▁Small	-11.0418
▁interact	-11.0419
▁Uber	-11.0419
rance	-11.0421
▁inspiration	-11.0421
▁autism	-11.0426
▁posting	-11.0426
▁Former	-11.0432
▁opens	-11.0433
▁examined	-11.0433
▁aged	-11.0434
▁relie	-11.0434
▁Speaker	-11.0435
▁surprisingly	-11.0437
ble	-11.0439
GL	-11.0439
▁assess	-11.044
▁tail	-11.0442
▁factory	-11.0442
▁technically	-11.0443
▁tables	-11.0451
fer	-11.0454
▁1:	-11.0455
▁arena	-11.0456
ise	-11.0457
▁8,	-11.0458
▁Does	-11.0461
▁bond	-11.0464
▁defended	-11.0468
▁shoes	-11.0468
By	-11.0472
▁blamed	-11.0475
▁Mountain	-11.0477
berg	-11.0486
▁Fort	-11.0489
election	-11.0489
▁signals	-11.0493
▁rank	-11.0494
▁guards	-11.0503
▁57	-11.0507
▁compromise	-11.0508
▁boat	-11.0513
▁attorneys	-11.0522
▁graphics	-11.0524
▁coins	-11.0525
FC	-11.0528
▁exhibit	-11.0532
▁decid	-11.0535
▁rookie	-11.0536
▁Studio	-11.0539
▁uniform	-11.0539
▁disorder	-11.0539
▁pocket	-11.0542
▁requirement	-11.0543
▁Saint	-11.0544
wa	-11.055
▁backing	-11.0551
An	-11.0551
▁playoff	-11.0552
▁windows	-11.0555
▁accepting	-11.0559
▁1997	-11.0561
▁grants	-11.0563
▁displays	-11.0566
▁speakers	-11.0566
▁em	-11.057
▁acquire	-11.0577
ki	-11.0581
res	-11.0584
▁counts	-11.0585
▁1000	-11.0586
▁Rod	-11.0586
minute	-11.0586
▁grid	-11.0587
ug	-11.0587
get	-11.059
▁2020	-11.0591
▁Ward	-11.0593
▁functional	-11.0596
▁ft	-11.0598
▁conversations	-11.0598
▁reader	-11.0598
▁lunch	-11.0601
▁der	-11.0605
▁freely	-11.0606
▁Hi	-11.0607
▁).	-11.0609
▁steal	-11.0611
part	-11.0616
▁milk	-11.0622
▁iron	-11.0627
▁lane	-11.0627
▁rounds	-11.0627
▁Hunt	-11.0628
ani	-11.0632
▁retain	-11.0632
▁una	-11.0635
▁patch	-11.0636
▁consult	-11.0643
▁scores	-11.0649
▁53	-11.065
▁tremendous	-11.0654
▁21,	-11.066
▁Euro	-11.0665
▁NOT	-11.0667
▁Netanyahu	-11.0667
▁racism	-11.0667
▁Magazine	-11.0667
▁ridiculous	-11.0667
▁Nepal	-11.0667
▁Theatre	-11.0667
▁Nelson	-11.0667
▁extraordinary	-11.0667
▁spill	-11.0667
▁mysterious	-11.0668
▁Craig	-11.0668
▁Rubio	-11.0668
▁copies	-11.0668
▁Overall	-11.0668
▁Orange	-11.0669
▁roots	-11.0669
▁scary	-11.0669
▁Arena	-11.067
▁Political	-11.067
▁Hockey	-11.067
▁transferred	-11.0671
▁branches	-11.0671
▁Remember	-11.0672
▁leap	-11.0672
▁Executive	-11.0673
▁stopping	-11.0673
▁Brad	-11.0674
▁Currently	-11.0675
▁satisfied	-11.0675
▁quit	-11.0675
▁dirty	-11.0675
▁1989	-11.0676
7.	-11.0678
▁occasionally	-11.068
▁isolated	-11.068
ix	-11.0682
▁indicat	-11.0684
▁architecture	-11.0685
▁Very	-11.0686
▁settled	-11.0691
▁Vice	-11.0692
▁1994	-11.0697
ut	-11.0704
▁def	-11.0707
('	-11.071
▁crack	-11.0712
▁hanging	-11.0719
▁limitations	-11.0719
▁physically	-11.0728
▁2009.	-11.0733
cy	-11.0735
▁porn	-11.0736
▁leaks	-11.0736
shot	-11.0741
▁bed	-11.0744
▁instructions	-11.0749
▁volunteers	-11.075
▁po	-11.075
▁dump	-11.0753
ip	-11.0753
▁wire	-11.0756
▁5,	-11.0757
▁56	-11.0758
▁monetar	-11.0759
▁marks	-11.0765
▁tear	-11.0766
▁declare	-11.0771
▁separated	-11.0772
▁urge	-11.0778
▁wondering	-11.0779
▁Ke	-11.0782
▁Corporation	-11.0794
▁collaboration	-11.0795
▁composition	-11.0798
▁grab	-11.0799
▁solo	-11.08
▁Bi	-11.08
▁economist	-11.0803
▁provisions	-11.0803
▁prosecutor	-11.0803
uri	-11.0805
▁executives	-11.0806
▁chicken	-11.0807
▁Edit	-11.0807
▁parallel	-11.0808
fully	-11.0813
▁Jane	-11.0815
▁graph	-11.0829
▁alien	-11.0832
▁killer	-11.0832
▁Key	-11.0832
▁FOR	-11.0833
▁missiles	-11.0837
income	-11.085
▁trace	-11.0852
▁reject	-11.0853
▁produces	-11.086
▁CD	-11.0863
▁Reading	-11.0871
▁relatives	-11.0873
▁hosting	-11.0873
▁loose	-11.0873
▁Anti	-11.0877
▁releas	-11.0877
▁Cal	-11.0877
▁missions	-11.089
▁orbit	-11.0891
▁Ph	-11.0893
][	-11.0895
▁opinions	-11.0896
▁deploy	-11.0901
▁11,	-11.0901
064	-11.0902
▁wanting	-11.0902
▁grave	-11.0903
▁Penn	-11.091
▁coaching	-11.0911
▁sudden	-11.0918
▁vertical	-11.0918
▁ally	-11.0924
▁Metro	-11.0929
▁Empire	-11.093
▁immune	-11.093
▁empire	-11.093
▁innovative	-11.093
▁Quebec	-11.093
▁departure	-11.093
▁Entertainment	-11.093
▁diagnosis	-11.093
▁flexible	-11.093
▁contemporary	-11.0931
▁scholarship	-11.0931
▁radar	-11.0931
▁Bruce	-11.0931
▁DVD	-11.0931
▁awful	-11.0931
▁Tennessee	-11.0932
▁confusion	-11.0932
▁Louisiana	-11.0932
▁clothes	-11.0932
▁managing	-11.0932
▁nonprofit	-11.0932
▁Wales	-11.0932
▁bold	-11.0933
▁guidance	-11.0934
▁Furthermore	-11.0934
▁Wright	-11.0934
▁100,000	-11.0934
▁Khan	-11.0935
▁$100	-11.0936
▁Lock	-11.0936
▁burden	-11.0936
▁Others	-11.0937
▁Captain	-11.0938
▁spectrum	-11.0938
▁Christie	-11.0939
▁Much	-11.0939
▁fascinating	-11.0941
▁diagnosed	-11.0944
▁till	-11.0944
▁chat	-11.0945
▁Six	-11.0946
▁eax	-11.0947
▁sustained	-11.0949
▁strip	-11.095
▁beaten	-11.0951
▁Carlo	-11.0951
▁1960	-11.0952
▁picks	-11.0954
▁justify	-11.0956
▁mad	-11.0956
();	-11.0957
▁briefly	-11.0962
▁Mobile	-11.0968
ber	-11.0974
▁Within	-11.0974
▁kicked	-11.0977
▁intention	-11.0982
▁riders	-11.0985
.[4]	-11.099
▁ingredients	-11.0994
▁appeals	-11.0996
▁emotions	-11.1008
▁economics	-11.1015
ST	-11.1018
▁filling	-11.1026
▁Market	-11.1027
▁militants	-11.1028
IN	-11.1036
▁fishing	-11.1036
ze	-11.1038
▁54	-11.1042
▁Grant	-11.1045
▁involve	-11.1046
▁repair	-11.1049
▁Hot	-11.1055
▁Dragon	-11.1055
▁polling	-11.1058
000	-11.1059
▁printing	-11.1062
source	-11.1065
▁fare	-11.1066
▁horror	-11.1067
▁infection	-11.1072
▁icon	-11.1072
▁amendment	-11.1072
▁Pack	-11.1072
ski	-11.1073
▁achievement	-11.1073
▁superior	-11.1073
▁10,	-11.1073
▁barrier	-11.1073
▁creature	-11.1073
▁passage	-11.1073
▁wedding	-11.1074
▁shield	-11.1074
▁exceptional	-11.1075
▁creator	-11.1079
residential	-11.1079
▁checked	-11.1094
▁landed	-11.1095
▁traveling	-11.1096
▁mail	-11.1098
▁Awards	-11.1101
▁explor	-11.1101
▁keys	-11.1102
nyone	-11.1105
▁3.5	-11.1112
▁borders	-11.1114
▁Fan	-11.1116
▁rational	-11.1118
▁beating	-11.112
▁invest	-11.1123
Man	-11.1131
▁cu	-11.1135
▁spell	-11.1138
▁approached	-11.1145
win	-11.1153
▁prospects	-11.116
▁sizes	-11.1163
lew	-11.1169
▁holes	-11.1175
▁ch	-11.1181
▁20,	-11.1182
▁bat	-11.1184
▁tie	-11.119
▁consume	-11.1192
▁sells	-11.1193
▁harsh	-11.1194
▁Latin	-11.1196
▁exercises	-11.12
▁checking	-11.12
▁intelligent	-11.12
▁Blood	-11.12
▁Taliban	-11.1201
▁absurd	-11.1201
▁accommodate	-11.1201
▁Dakota	-11.1201
▁vague	-11.1201
▁participation	-11.1201
▁Analysis	-11.1201
▁Mitchell	-11.1201
▁excitement	-11.1201
▁Snowden	-11.1201
▁Federation	-11.1201
▁encryption	-11.1201
▁oversight	-11.1201
▁buried	-11.1202
▁Yahoo	-11.1202
▁anxiety	-11.1202
▁possibilities	-11.1202
▁carries	-11.1202
▁arguably	-11.1202
▁Harper	-11.1202
▁Ottawa	-11.1204
▁Channel	-11.1204
▁Children	-11.1204
▁McDonald	-11.1204
▁electoral	-11.1204
▁comply	-11.1204
▁Machine	-11.1205
▁Barry	-11.1206
▁Batman	-11.1206
dominant	-11.1207
▁Christopher	-11.1207
▁Oliver	-11.1207
▁Jerry	-11.1208
▁animated	-11.1209
▁islands	-11.121
▁Subscribe	-11.1211
▁Online	-11.1211
▁nose	-11.1213
▁Sept	-11.1216
▁leaked	-11.1217
▁automatic	-11.1217
▁2011.	-11.1217
▁executed	-11.1219
media	-11.1222
▁reserved	-11.1225
▁enhanced	-11.1228
▁cinema	-11.1228
7000000000000147	-11.1231
▁reminder	-11.1232
mann	-11.1255
▁threatening	-11.1255
▁survived	-11.1259
-6	-11.1265
▁singing	-11.1271
▁Due	-11.1273
▁alternate	-11.1274
▁myth	-11.1276
▁stats	-11.1277
▁Trans	-11.1287
▁persons	-11.1288
▁HD	-11.1289
esh	-11.1299
▁teammates	-11.131
▁intervention	-11.1311
▁discipline	-11.1315
care	-11.1322
▁badly	-11.1323
bo	-11.1327
▁Gar	-11.1328
▁parks	-11.1328
▁BC	-11.1329
▁creatures	-11.133
▁conducting	-11.1332
▁NY	-11.1335
▁ET	-11.1335
▁profession	-11.1342
▁midfielder	-11.1346
mer	-11.1348
▁compound	-11.135
▁organisation	-11.1351
▁incentive	-11.1351
▁prediction	-11.1352
▁adviser	-11.1353
▁Film	-11.1354
▁mm	-11.1354
▁rebel	-11.1366
▁horse	-11.1366
▁charts	-11.1373
▁Yo	-11.138
▁formation	-11.1381
▁deserves	-11.1384
▁surely	-11.1386
▁bone	-11.1387
▁2-	-11.1388
▁withdraw	-11.139
▁bother	-11.139
▁climb	-11.1395
:10	-11.1396
Getty	-11.1397
profile	-11.1397
two	-11.1399
▁fails	-11.1399
▁adjust	-11.1399
▁lesson	-11.1405
zi	-11.141
----------------	-11.1418
▁sweep	-11.1422
7%	-11.1425
che	-11.1426
▁exceed	-11.1431
▁accord	-11.1433
▁Beast	-11.1438
▁starter	-11.1438
▁screening	-11.1439
▁slide	-11.1445
km	-11.1446
▁8.	-11.1451
▁Never	-11.1451
AM	-11.1451
▁reverse	-11.1453
▁cop	-11.1458
▁spy	-11.146
▁agreements	-11.1461
▁cry	-11.1461
▁MPs	-11.1463
tion	-11.1464
▁enormous	-11.1464
▁unfair	-11.1465
▁papers	-11.1469
▁occasional	-11.147
▁precise	-11.147
▁flee	-11.1477
▁ethnic	-11.1477
▁prosecution	-11.1478
▁Verizon	-11.1478
▁Sheriff	-11.1478
▁pioneer	-11.1478
▁Mueller	-11.1478
▁Columbus	-11.1479
▁Memorial	-11.1479
▁foster	-11.1479
▁curious	-11.1479
▁respondents	-11.1479
▁Treasury	-11.1479
▁maintenance	-11.1479
▁applies	-11.1479
▁Marshall	-11.1479
▁Maryland	-11.148
▁adaptation	-11.148
▁wireless	-11.148
▁participating	-11.148
▁const	-11.1481
▁workplace	-11.1481
▁1986	-11.1481
book	-11.1482
▁Climate	-11.1482
▁Swedish	-11.1482
▁engaging	-11.1482
▁Jonathan	-11.1482
▁PR	-11.1483
▁Robin	-11.1483
▁NDP	-11.1484
▁shipping	-11.1484
▁Charlie	-11.1485
▁difficulties	-11.1486
▁Nothing	-11.1486
▁speculation	-11.1486
▁ceiling	-11.1487
▁hunger	-11.1487
▁perceived	-11.1488
▁Utah	-11.1489
▁integrate	-11.149
▁Todd	-11.149
▁cheaper	-11.1491
▁Deep	-11.1491
▁complained	-11.1493
▁Reid	-11.1493
▁donate	-11.1494
▁everyday	-11.1496
▁scared	-11.1497
▁magnetic	-11.1501
▁accusations	-11.1502
▁approaches	-11.1505
▁Sessions	-11.1506
▁eligible	-11.151
action	-11.1512
▁resolved	-11.1512
▁USB	-11.1516
▁Need	-11.152
▁Mount	-11.1523
ery	-11.1533
▁clip	-11.1536
▁Evans	-11.1537
OR	-11.1537
▁sessions	-11.1544
▁Lot	-11.1545
▁react	-11.1551
▁crossed	-11.1553
▁Ever	-11.1555
ure	-11.1556
▁120	-11.1558
▁Soon	-11.1558
▁highlight	-11.1565
New	-11.1566
▁bail	-11.1567
▁CI	-11.157
von	-11.1581
▁Bat	-11.1582
▁traveled	-11.1591
▁forum	-11.1592
▁graphic	-11.1592
0000000000000147	-11.1602
▁1.5	-11.1602
▁Crime	-11.1602
▁Ch	-11.1608
▁Card	-11.1612
you	-11.1613
▁wound	-11.1614
▁Del	-11.1615
▁backup	-11.1616
▁routine	-11.1624
▁restore	-11.1625
▁grade	-11.1625
▁outbreak	-11.1627
▁engineers	-11.1628
▁180	-11.1631
▁extract	-11.1632
▁legend	-11.1632
▁fossil	-11.1633
▁tutorial	-11.1634
▁explosion	-11.1634
▁bathroom	-11.1636
▁drone	-11.1636
▁appointment	-11.1642
CA	-11.1644
▁commander	-11.1652
▁quest	-11.1658
▁adapt	-11.1659
▁setup	-11.1662
▁daughters	-11.1665
▁Ki	-11.1667
▁sons	-11.1668
van	-11.1669
▁titled	-11.1669
bound	-11.1675
profit	-11.1681
friendly	-11.1682
Our	-11.1685
▁layers	-11.1688
▁Forces	-11.169
▁Conservatives	-11.1692
▁comparisons	-11.1692
▁coin	-11.1697
▁visiting	-11.1698
ities	-11.1699
▁2,000	-11.1701
wore	-11.1701
▁Fix	-11.1705
▁streams	-11.1716
▁Trail	-11.1716
▁reveals	-11.172
▁tanks	-11.1727
One	-11.1729
▁Step	-11.173
3000000000000151	-11.1737
▁settle	-11.1738
▁250	-11.1743
▁Continue	-11.1744
▁drag	-11.1748
/2	-11.1748
▁gate	-11.175
▁preserve	-11.175
▁cure	-11.1752
▁secular	-11.1752
▁undermine	-11.1753
▁Senators	-11.1762
▁Deput	-11.1764
▁luxury	-11.1764
▁bulk	-11.1764
▁identical	-11.1764
▁telephone	-11.1764
▁divorce	-11.1764
▁Morning	-11.1764
▁ought	-11.1764
▁unnecessary	-11.1764
▁Safety	-11.1764
▁Alliance	-11.1764
▁Smart	-11.1764
▁Kickstarter	-11.1765
▁imagination	-11.1765
▁fraction	-11.1765
▁Morgan	-11.1765
▁Room	-11.1765
▁steady	-11.1765
▁Pittsburgh	-11.1765
▁celebrity	-11.1765
▁functionality	-11.1765
▁Trek	-11.1766
▁Perry	-11.1766
▁Edition	-11.1766
▁Castle	-11.1767
▁brewery	-11.1767
▁wrapped	-11.1768
▁Father	-11.1768
▁verify	-11.1768
▁Almost	-11.1769
▁witnesses	-11.1769
▁ambitious	-11.177
▁acceptable	-11.1771
▁disappointing	-11.1772
▁marine	-11.1772
▁frequency	-11.1773
▁emphasis	-11.1773
▁MLS	-11.1773
▁guidelines	-11.1775
▁desk	-11.1775
▁Mail	-11.1777
▁accuracy	-11.1777
▁camps	-11.1777
▁pretend	-11.1777
▁Mer	-11.1779
▁62	-11.1781
▁accountable	-11.1781
▁Du	-11.1782
▁Talk	-11.1786
▁clothing	-11.1786
▁homeless	-11.1786
▁Pok	-11.1788
▁Really	-11.1789
▁lobbying	-11.179
▁tablet	-11.1794
▁meaningful	-11.1796
▁width	-11.1796
▁honestly	-11.1798
▁visits	-11.1798
▁bacteria	-11.1802
▁painted	-11.1809
▁Gun	-11.1811
▁violated	-11.1812
▁Che	-11.1816
▁poster	-11.1819
▁Parker	-11.1821
▁Marco	-11.1823
▁reminded	-11.1824
▁drinks	-11.1827
▁Har	-11.1827
▁Lions	-11.1832
▁safely	-11.1835
.[5]	-11.1838
IC	-11.1839
▁themes	-11.184
▁manufacturers	-11.1841
▁SC	-11.1843
SA	-11.1844
▁Er	-11.1848
2000000000000147	-11.1848
PA	-11.1848
▁$8	-11.1849
▁meters	-11.1851
▁violate	-11.1853
▁Ar	-11.1859
▁teens	-11.1859
▁rumors	-11.186
▁murdered	-11.1861
▁Sa	-11.1864
▁rhetoric	-11.1867
▁2.0	-11.1884
▁Dean	-11.1884
▁por	-11.1887
▁genetic	-11.1894
▁Link	-11.1895
▁echo	-11.19
▁Tu	-11.1909
▁9,	-11.192
var	-11.1922
▁dreams	-11.1923
▁leverage	-11.1926
▁enterprise	-11.1927
▁protein	-11.1927
▁excuse	-11.1931
▁Economic	-11.1931
▁blend	-11.1932
▁soldier	-11.1934
▁30-	-11.1936
ean	-11.1937
▁BE	-11.1943
▁rap	-11.1951
▁slip	-11.1951
ich	-11.1959
▁min	-11.1964
▁trials	-11.1964
▁mov	-11.1966
▁investigations	-11.1969
▁Col	-11.1973
▁publish	-11.1976
controlled	-11.1977
including	-11.1978
How	-11.1978
most	-11.1984
▁constitution	-11.1993
▁sentiment	-11.1997
046	-11.2002
▁inject	-11.2011
▁damn	-11.202
▁bump	-11.2025
▁impose	-11.2031
▁divide	-11.2032
▁shoulders	-11.2037
▁Name	-11.2038
MP	-11.2039
▁du	-11.2042
▁Want	-11.2043
▁Ball	-11.2045
▁Tax	-11.2046
▁loves	-11.2046
▁Original	-11.2047
▁observe	-11.2048
▁mount	-11.2049
▁shops	-11.2053
iv	-11.2054
▁casual	-11.2058
▁Protection	-11.2058
▁Netherlands	-11.2058
▁Coalition	-11.2058
▁Melbourne	-11.2058
▁uncertain	-11.2058
▁batteries	-11.2058
▁crude	-11.2058
▁golf	-11.2059
▁Nature	-11.2059
▁kitchen	-11.2059
▁meanwhile	-11.2059
▁cognitive	-11.2059
▁entrance	-11.2059
▁Kyle	-11.2059
▁Technology	-11.206
▁pollution	-11.206
▁drunk	-11.2062
▁disappointed	-11.2063
▁tab	-11.2064
▁Order	-11.2066
▁impressed	-11.2066
▁overnight	-11.2067
▁gameplay	-11.2068
▁considerable	-11.2068
▁references	-11.2069
▁secrets	-11.207
▁mice	-11.2071
▁oldest	-11.2073
▁devoted	-11.2073
▁subsequently	-11.2074
▁READ	-11.2074
▁substantially	-11.2075
▁calculated	-11.2075
▁practically	-11.2075
▁Kate	-11.2075
▁Nobody	-11.2078
▁golden	-11.2079
▁secondary	-11.2082
1000000000000150	-11.2082
▁revenues	-11.2083
▁addresses	-11.2085
▁Gates	-11.2086
ita	-11.2092
▁strain	-11.2092
▁IRS	-11.2092
▁accomplished	-11.2096
▁Fame	-11.2097
▁Giants	-11.2099
▁Dar	-11.21
ot	-11.2104
▁publishing	-11.2105
▁mentions	-11.2105
▁jet	-11.2105
▁buyers	-11.2106
________________	-11.2107
▁regulators	-11.2108
▁dressed	-11.2109
▁dominated	-11.2111
▁aging	-11.2112
▁demo	-11.2121
▁combine	-11.2121
▁deadly	-11.2129
str	-11.213
015	-11.2133
via	-11.2136
▁Lost	-11.2136
▁token	-11.2137
▁slaves	-11.2141
▁shifted	-11.2142
ster	-11.2144
▁Getty	-11.2147
▁q	-11.2161
▁critic	-11.2163
▁Ted	-11.2164
▁variables	-11.2168
▁identifying	-11.2172
▁Win	-11.2185
▁Marc	-11.219
▁routes	-11.2191
▁stocks	-11.2193
▁horses	-11.2195
▁YOU	-11.2197
▁insight	-11.22
▁intentions	-11.2201
▁acknowledge	-11.2204
▁attribute	-11.2206
▁trips	-11.2208
ev	-11.2209
▁neur	-11.2219
▁suspension	-11.2224
▁mountains	-11.2228
▁tune	-11.2228
▁rewards	-11.2228
ena	-11.2229
▁2010.	-11.223
▁bullet	-11.2233
▁affair	-11.2234
▁festival	-11.2237
▁publisher	-11.2243
▁acted	-11.2243
gan	-11.2245
misses	-11.2247
▁barrel	-11.2248
▁Moto	-11.225
▁pit	-11.2258
▁concepts	-11.2261
▁processor	-11.2265
▁pin	-11.2269
week	-11.2279
▁je	-11.2281
▁poison	-11.2283
▁Tak	-11.2284
.[3]	-11.2288
▁dual	-11.2289
▁departments	-11.2296
▁9.	-11.2296
exe	-11.2298
▁painting	-11.2299
▁studying	-11.2305
▁OR	-11.2308
▁introduc	-11.2308
▁$4	-11.2309
▁liquid	-11.2317
rk	-11.232
▁viewing	-11.2324
evolutionary	-11.2326
▁Arts	-11.2332
▁examine	-11.2334
▁86	-11.2334
▁crop	-11.2344
▁Ver	-11.2345
five	-11.2348
▁instant	-11.2353
▁embrace	-11.2356
▁hung	-11.2356
ette	-11.2356
▁Alberta	-11.236
ola	-11.236
▁tragic	-11.2361
▁Spotify	-11.2361
▁drought	-11.2361
▁likelihood	-11.2361
▁Russell	-11.2361
▁choosing	-11.2361
▁stunning	-11.2361
▁anchor	-11.2361
▁CPU	-11.2362
▁massacre	-11.2362
▁contrary	-11.2362
▁equation	-11.2362
▁Pinterest	-11.2362
▁Franklin	-11.2362
▁FDA	-11.2362
▁intensity	-11.2362
▁Morris	-11.2362
▁Episode	-11.2363
▁bizarre	-11.2363
▁sequel	-11.2363
▁Keith	-11.2363
▁availability	-11.2363
▁Regional	-11.2363
▁dominate	-11.2364
▁submitted	-11.2365
isation	-11.2365
▁Kurdish	-11.2365
▁dioxide	-11.2365
▁Oil	-11.2365
▁Reserve	-11.2367
▁lone	-11.2367
▁comparing	-11.2367
▁precedent	-11.2368
▁globe	-11.2368
▁Double	-11.2368
▁basement	-11.2369
▁Weiss	-11.2369
▁1930	-11.2369
▁Could	-11.237
▁garner	-11.237
▁soccer	-11.237
▁Money	-11.2371
▁strongest	-11.2372
▁Seven	-11.2372
▁Obviously	-11.2373
▁greatly	-11.2373
▁partially	-11.2374
▁releases	-11.2374
▁fame	-11.2376
▁Village	-11.2376
▁expecting	-11.2377
▁wishes	-11.2377
▁lyrics	-11.2379
▁Tory	-11.2379
▁gravity	-11.238
▁Editor	-11.2381
▁Around	-11.2381
card	-11.2381
▁bags	-11.2382
▁Help	-11.2385
▁AFP	-11.2386
▁Ca	-11.2389
▁argues	-11.2392
pin	-11.2393
▁sake	-11.2394
▁lacking	-11.2395
Oh	-11.2397
100	-11.24
▁Maine	-11.2403
▁GMT	-11.2405
▁pressing	-11.2405
ware	-11.2406
▁4:	-11.2408
▁celebrated	-11.2408
▁reactions	-11.2411
▁ministers	-11.2413
▁lifted	-11.2415
▁forecast	-11.2416
▁focuse	-11.2419
▁Base	-11.242
▁packed	-11.2422
ker	-11.2422
▁Champions	-11.2423
uch	-11.2423
▁pet	-11.2429
▁addressing	-11.2431
▁habits	-11.2432
▁mature	-11.2432
▁Pen	-11.2435
▁Commissioner	-11.2435
▁garden	-11.2441
▁fed	-11.2441
▁newspapers	-11.2446
▁$50	-11.245
▁characteristics	-11.2451
▁arrests	-11.2451
▁revealing	-11.2456
▁existed	-11.2463
▁convert	-11.2465
▁displayed	-11.2471
ju	-11.2472
▁attending	-11.2474
hill	-11.2475
▁responding	-11.2477
▁Karl	-11.2478
▁flags	-11.2483
▁connecting	-11.2494
▁proceed	-11.2497
▁packages	-11.2499
reaches	-11.25
▁makers	-11.2507
▁appealing	-11.2508
▁ra	-11.2517
▁procedures	-11.2519
▁reserve	-11.2519
6000000000000150	-11.252
-35	-11.2524
room	-11.2526
NG	-11.2527
only	-11.2536
▁intend	-11.2537
▁prevented	-11.2538
▁burst	-11.2539
▁RT	-11.2539
▁Near	-11.254
▁Afghan	-11.2541
▁occasion	-11.2541
▁advantages	-11.2542
▁reception	-11.2543
▁Leader	-11.2544
▁registration	-11.2546
▁operator	-11.2546
▁tissue	-11.2546
.[6]	-11.2547
▁passenger	-11.2547
▁guests	-11.2547
▁permit	-11.2548
▁Mormon	-11.2548
▁blocking	-11.2549
mp	-11.2549
▁Guy	-11.255
▁tension	-11.2551
▁senators	-11.2556
▁Girl	-11.2557
▁bugs	-11.2558
▁Child	-11.2558
▁defender	-11.256
▁disk	-11.256
▁refugee	-11.256
▁bubble	-11.2568
iya	-11.2574
▁Olympics	-11.2575
▁centers	-11.2578
Don	-11.2582
▁acid	-11.2585
sky	-11.2585
▁provider	-11.2588
▁Find	-11.2589
gradient	-11.259
type	-11.2596
▁designer	-11.26
▁Books	-11.2607
press	-11.2607
Not	-11.2612
this	-11.2615
▁trucks	-11.2627
▁flip	-11.263
▁sections	-11.263
rich	-11.2635
▁kit	-11.2637
▁Map	-11.264
▁coat	-11.2642
▁Ban	-11.2643
▁absorb	-11.2644
▁fool	-11.2646
▁negotiate	-11.2646
▁pursue	-11.265
ken	-11.265
▁outrage	-11.265
▁minimal	-11.2652
▁Philip	-11.2657
ew	-11.2665
▁hopeful	-11.2666
▁genius	-11.267
▁contents	-11.2671
003	-11.2672
▁Hawaii	-11.2672
▁Mario	-11.2674
▁charging	-11.2674
▁jazz	-11.2674
▁Universe	-11.2674
▁Vladimir	-11.2674
▁entities	-11.2674
▁Between	-11.2674
▁Peace	-11.2674
▁chemistry	-11.2674
▁Medicare	-11.2674
▁devastating	-11.2674
▁Flynn	-11.2674
▁expertise	-11.2674
▁duration	-11.2674
▁prelim	-11.2674
▁specify	-11.2675
▁brush	-11.2675
▁diabetes	-11.2675
▁Staff	-11.2675
▁Study	-11.2675
▁Circuit	-11.2675
▁Consumer	-11.2675
▁heritage	-11.2675
▁Assange	-11.2675
▁Danny	-11.2676
▁Warner	-11.2676
▁viable	-11.2676
▁realistic	-11.2676
▁88	-11.2677
▁trash	-11.2677
▁Express	-11.2677
▁Trust	-11.2678
▁Rachel	-11.2678
▁Murphy	-11.2678
▁Prior	-11.2678
▁darkness	-11.2679
▁Fast	-11.268
▁curb	-11.268
▁Senior	-11.268
▁Winter	-11.2681
▁Brandon	-11.2682
▁sustainable	-11.2682
▁deliberately	-11.2682
▁Neil	-11.2683
▁accompanie	-11.2683
▁Collins	-11.2684
▁curve	-11.2685
▁Hard	-11.2686
▁holy	-11.2686
▁loop	-11.2687
▁hiding	-11.2688
jo	-11.2688
▁Walter	-11.2688
▁surrounded	-11.2689
top	-11.2692
▁urging	-11.2692
6000000000000147	-11.2693
▁24,	-11.2699
night	-11.2699
ent	-11.2701
▁binding	-11.2701
yn	-11.2702
▁gut	-11.2707
▁elect	-11.2707
core	-11.2707
▁Rangers	-11.2709
▁Stop	-11.2715
▁Dick	-11.2718
▁shocked	-11.272
▁vegetables	-11.2721
▁su	-11.2724
space	-11.2727
code	-11.2731
where	-11.2733
▁Iron	-11.2737
cross	-11.2741
▁resemble	-11.2746
▁prisoners	-11.2746
▁floating	-11.2747
4000000000000151	-11.2747
▁shocking	-11.2749
▁Albert	-11.275
▁quotes	-11.275
▁oh	-11.2754
▁noting	-11.2754
Based	-11.2767
▁Cor	-11.277
▁bet	-11.2772
▁Looking	-11.2776
▁Za	-11.2778
.[11]	-11.2778
▁Mother	-11.2789
si	-11.2789
▁shaped	-11.2799
deemed	-11.281
▁360	-11.2812
3000000000000150	-11.2816
▁highlights	-11.2817
▁exchanges	-11.2817
▁districts	-11.2823
▁determin	-11.2824
▁organis	-11.2826
▁forgotten	-11.2827
▁warrant	-11.283
▁sauce	-11.2836
▁pledge	-11.2837
▁Si	-11.2837
▁Pass	-11.2838
▁ca	-11.2852
▁il	-11.2854
▁seed	-11.2855
▁frustration	-11.2857
lon	-11.2859
▁pose	-11.2859
▁Election	-11.2861
ward	-11.2862
▁tongue	-11.2864
▁vessel	-11.2866
▁breast	-11.2867
▁Communist	-11.2868
032	-11.2868
▁conviction	-11.2869
▁shortage	-11.287
▁politician	-11.287
▁teammate	-11.2872
lock	-11.2878
mu	-11.2878
▁grain	-11.2878
▁Hand	-11.288
▁specialist	-11.2881
▁Number	-11.2885
▁61	-11.2885
▁refus	-11.2887
▁incomplete	-11.2889
OS	-11.2893
▁coup	-11.2898
wide	-11.2904
▁shirt	-11.2904
oriented	-11.2912
▁Han	-11.2915
quality	-11.2916
winning	-11.2916
front	-11.2916
founder	-11.2918
▁boom	-11.2918
▁Associate	-11.2919
▁Put	-11.2922
about	-11.2922
-10	-11.2928
▁lo	-11.2929
▁describ	-11.2934
▁volumes	-11.294
▁marry	-11.2948
▁PA	-11.295
▁bombs	-11.2951
5000000000000147	-11.2952
7000000000000150	-11.2958
▁mile	-11.2959
team	-11.2963
SE	-11.2963
ative	-11.2968
▁68	-11.2974
▁17,	-11.2979
▁champions	-11.2979
▁Photograph	-11.2981
thirds	-11.2981
▁designs	-11.2981
open	-11.2988
▁Alaska	-11.2991
▁butter	-11.2992
ins	-11.2993
▁1.2	-11.2994
▁lens	-11.2994
▁suppress	-11.2995
▁reinforce	-11.2996
▁optimistic	-11.2996
▁weakness	-11.2996
▁Kentucky	-11.2996
▁Twin	-11.2996
▁flexibility	-11.2996
▁martial	-11.2996
▁sheriff	-11.2996
▁threshold	-11.2996
▁tribute	-11.2996
▁Wikipedia	-11.2996
▁probability	-11.2996
▁Section	-11.2996
▁Vermont	-11.2996
▁erect	-11.2996
▁Oxford	-11.2997
▁respective	-11.2997
▁Stanley	-11.2997
▁HTC	-11.2997
▁Temple	-11.2997
▁childhood	-11.2997
▁flesh	-11.2997
▁citizenship	-11.2997
▁Biden	-11.2997
▁harmful	-11.2998
▁detention	-11.2998
▁Hotel	-11.2998
▁integrity	-11.2998
▁awkward	-11.2998
▁McConnell	-11.2998
▁inspire	-11.2998
▁uncomfortable	-11.2998
▁regain	-11.2998
▁Norway	-11.2999
▁sect	-11.2999
tar	-11.3
▁pursuing	-11.3
▁Coach	-11.3
▁modified	-11.3
▁identification	-11.3
▁Mission	-11.3001
▁refusal	-11.3001
▁Pete	-11.3001
▁momentum	-11.3001
▁Arsenal	-11.3001
▁Harrison	-11.3001
▁Rare	-11.3002
▁Print	-11.3002
▁insane	-11.3002
▁QB	-11.3002
▁1950	-11.3002
▁tenure	-11.3003
▁oxygen	-11.3003
▁accidentally	-11.3004
▁Similarly	-11.3004
▁vowed	-11.3005
▁rental	-11.3005
▁Application	-11.3006
▁scratch	-11.3006
▁knife	-11.3006
▁1979	-11.3006
▁qualified	-11.3008
▁Case	-11.3009
▁Hopefully	-11.3009
▁designated	-11.3009
IS	-11.3009
▁boring	-11.301
▁metro	-11.3011
▁fortune	-11.3011
▁10%	-11.3012
▁disabled	-11.3012
▁Leave	-11.3012
▁endless	-11.3014
▁UPDATE	-11.3014
▁angle	-11.3016
▁Crew	-11.3017
▁20%	-11.3018
▁speeches	-11.302
▁analyzed	-11.302
▁resist	-11.302
▁Ram	-11.3022
▁Camp	-11.3023
▁constructed	-11.3023
▁innings	-11.3024
▁powered	-11.3026
▁converted	-11.3026
▁Panthers	-11.3028
▁agricultural	-11.3029
▁highlighted	-11.3029
▁resort	-11.3032
▁possess	-11.3033
▁suspects	-11.3033
▁healing	-11.3034
▁longest	-11.3035
▁ethics	-11.3037
▁pending	-11.3037
▁Holy	-11.3038
▁lifetime	-11.3039
▁Je	-11.3041
▁witnessed	-11.3044
ide	-11.3045
8,000	-11.3048
036	-11.3051
▁competitors	-11.3054
▁migrants	-11.3058
iest	-11.3061
tes	-11.3064
▁illegally	-11.3064
▁recalled	-11.3066
▁escaped	-11.3069
ating	-11.3069
berry	-11.308
▁Ha	-11.3089
mile	-11.3089
▁30,	-11.3094
▁List	-11.3098
▁pitching	-11.3104
▁Non	-11.3105
▁("	-11.3106
ional	-11.3107
▁cleared	-11.3107
▁pepper	-11.3109
▁16,	-11.3115
▁File	-11.3116
ible	-11.3116
▁Commons	-11.3117
▁Nu	-11.3121
▁drafted	-11.313
▁hack	-11.313
▁occasions	-11.313
▁reserves	-11.313
▁Heat	-11.3132
▁briefing	-11.3136
▁23,	-11.3146
▁barriers	-11.3152
▁Late	-11.3152
▁3.0	-11.3157
▁tears	-11.3157
▁lanes	-11.3159
▁Storm	-11.3166
▁ho	-11.3167
sen	-11.317
les	-11.3171
owned	-11.3171
▁hyper	-11.318
▁finishing	-11.3182
▁Ku	-11.3185
▁moderate	-11.3189
▁mortgage	-11.319
▁enters	-11.3194
▁1.1	-11.3195
▁Come	-11.3196
▁consultant	-11.3199
aware	-11.3201
▁Knight	-11.3202
▁GB	-11.3202
▁terminal	-11.3204
▁Return	-11.3204
▁Summer	-11.3204
▁cooling	-11.3207
lu	-11.3208
ped	-11.3211
▁shooter	-11.3212
form	-11.3213
▁password	-11.3213
▁Animal	-11.3213
▁$20	-11.3221
rey	-11.3229
▁preferr	-11.323
▁bowl	-11.3238
▁nationalist	-11.3242
▁Springs	-11.3246
▁trains	-11.3247
▁Ti	-11.3249
eh	-11.3251
▁halt	-11.3251
▁id	-11.3253
▁drops	-11.3254
rick	-11.3254
▁wheel	-11.3257
▁undergo	-11.3257
▁audiences	-11.3258
cut	-11.3261
mar	-11.3267
▁buttons	-11.3268
▁debates	-11.3269
▁woods	-11.327
base	-11.327
▁realm	-11.3271
Some	-11.3272
▁Gr	-11.3275
Fi	-11.3281
▁Block	-11.3288
▁neighborhoods	-11.3289
▁appoint	-11.3291
▁appearing	-11.3297
▁bite	-11.3297
▁Gu	-11.3298
▁organize	-11.3299
5000000000000150	-11.3299
▁condemn	-11.3302
▁$15	-11.3302
▁unlock	-11.3303
7000000000000152	-11.3304
▁walks	-11.3305
▁Stein	-11.3306
▁honour	-11.3308
▁Visit	-11.3313
▁clever	-11.3315
▁Hu	-11.3322
▁Tea	-11.3326
▁Protest	-11.3327
opyright	-11.3328
▁disrupt	-11.3328
tz	-11.3328
▁motor	-11.3328
▁glance	-11.3329
▁Buffalo	-11.333
▁REUTERS	-11.333
▁infinite	-11.333
▁navigation	-11.333
▁relating	-11.333
▁cocaine	-11.333
▁verdict	-11.333
▁Focus	-11.333
▁Besides	-11.333
▁tribal	-11.333
▁Griffin	-11.333
▁babies	-11.333
▁Cowboys	-11.333
▁boycott	-11.333
▁85	-11.333
▁streak	-11.333
▁Montana	-11.333
▁Saturn	-11.333
▁Potter	-11.333
▁Bal	-11.333
▁Profile	-11.333
▁Lucas	-11.333
▁Nathan	-11.333
▁node	-11.3331
▁Further	-11.3331
▁technological	-11.3331
▁Beyond	-11.3331
▁Bennett	-11.3331
▁summary	-11.3332
▁hybrid	-11.3332
▁disruption	-11.3332
▁breach	-11.3333
▁documentation	-11.3334
▁Poland	-11.3334
▁assassination	-11.3334
▁complexity	-11.3334
▁EPA	-11.3335
▁evaluate	-11.3336
▁juice	-11.3336
▁HTML	-11.3337
▁Version	-11.3337
▁descent	-11.3339
▁financing	-11.334
▁assign	-11.334
▁composed	-11.334
▁determination	-11.334
▁directors	-11.3341
▁Steam	-11.3342
named	-11.3342
▁listing	-11.3343
▁acceptance	-11.3345
▁stroke	-11.3345
▁gaps	-11.3346
lot	-11.3346
tro	-11.3347
▁resigned	-11.3349
▁Ltd	-11.335
▁hardest	-11.3351
▁safer	-11.3352
▁forming	-11.3354
▁descend	-11.3361
range	-11.3369
▁infamous	-11.3371
▁advised	-11.3371
▁burned	-11.3379
▁(4	-11.3385
▁separately	-11.3387
▁bears	-11.339
ines	-11.3391
▁67	-11.3394
ky	-11.3396
▁corn	-11.3401
▁Cost	-11.3401
▁poorly	-11.3403
▁Ex	-11.3404
▁productive	-11.341
▁scholars	-11.3411
▁Eagles	-11.3424
▁Advertisements	-11.3431
▁25,	-11.3441
▁inmates	-11.3443
▁contacts	-11.3445
▁Create	-11.3446
▁planes	-11.345
ata	-11.3451
ied	-11.3453
4000000000000147	-11.3461
▁Pay	-11.3462
▁laugh	-11.3464
▁symbol	-11.3465
▁Ri	-11.3468
▁nest	-11.347
▁failures	-11.3477
▁(2)	-11.3477
▁UI	-11.348
▁playoffs	-11.35
AC	-11.3501
▁Dot	-11.3503
▁developments	-11.3506
▁accounting	-11.3507
▁6-	-11.3507
▁smell	-11.3508
DS	-11.3515
▁sleeping	-11.3515
▁Corps	-11.352
▁sponsor	-11.352
▁approve	-11.3521
▁construct	-11.3523
▁yield	-11.3524
▁magical	-11.3525
▁conclude	-11.3529
▁ambassador	-11.3531
etic	-11.3539
hen	-11.3539
▁cabinet	-11.3539
▁supplement	-11.3541
▁texture	-11.3541
.[7]	-11.3542
▁Garden	-11.3542
▁concert	-11.3543
▁sensor	-11.3544
screen	-11.3544
▁Players	-11.3545
▁militant	-11.3547
▁demonstration	-11.3548
▁assert	-11.3548
▁ecosystem	-11.3548
▁colleague	-11.3548
▁boot	-11.3548
▁variant	-11.3549
▁Common	-11.3554
▁owe	-11.3556
▁wars	-11.3557
▁dated	-11.3559
▁headline	-11.3559
user	-11.356
▁protections	-11.3566
▁finale	-11.3568
▁Song	-11.3573
▁licenses	-11.3575
member	-11.3581
▁Buy	-11.3581
tta	-11.3581
,500	-11.3585
-20	-11.3588
ID	-11.3589
citation	-11.359
Why	-11.3594
speed	-11.3595
log	-11.3596
▁admits	-11.3597
▁Liberals	-11.3601
▁Cole	-11.361
▁Guide	-11.3618
ranging	-11.3618
5,000	-11.3621
▁dealt	-11.3627
▁correspond	-11.3627
urged	-11.3628
▁sticks	-11.363
▁Band	-11.3632
▁Yemen	-11.3639
▁bias	-11.3646
▁regulate	-11.3647
▁maintains	-11.3652
▁58	-11.3655
▁flavor	-11.3658
▁committees	-11.3658
▁transparent	-11.3659
▁12.	-11.3663
▁Ash	-11.3663
▁nights	-11.3665
▁fines	-11.3666
▁Sub	-11.3666
▁passionate	-11.3668
▁Organization	-11.3668
▁Victoria	-11.3673
▁Thunder	-11.3674
▁beneficial	-11.3675
▁confusing	-11.3675
▁humanitarian	-11.3675
▁precious	-11.3675
▁adequate	-11.3675
▁asylum	-11.3675
▁NCAA	-11.3675
▁influential	-11.3675
▁penalties	-11.3675
▁pursuit	-11.3675
▁cattle	-11.3675
▁Merkel	-11.3675
▁ugly	-11.3675
▁tendency	-11.3675
▁Queensland	-11.3675
▁Sydney	-11.3675
▁roof	-11.3675
▁mortality	-11.3675
▁Movement	-11.3675
▁resignation	-11.3675
▁pleasant	-11.3675
▁temporarily	-11.3675
▁Doug	-11.3676
▁exploration	-11.3676
▁detained	-11.3676
▁tragedy	-11.3676
▁Immigration	-11.3676
▁Venezuela	-11.3676
▁Stewart	-11.3676
▁radiation	-11.3677
▁confirmation	-11.3677
▁breakdown	-11.3677
▁Native	-11.3677
▁NHS	-11.3677
▁Blake	-11.3678
▁Chuck	-11.3678
▁counties	-11.3679
▁Pattern	-11.3679
▁Probably	-11.3679
▁wheat	-11.3679
▁WWE	-11.3679
▁fled	-11.368
▁deployment	-11.368
▁consciousness	-11.368
▁Charlotte	-11.3682
▁equity	-11.3682
▁infected	-11.3682
▁Prize	-11.3682
%20	-11.3682
▁Secret	-11.3682
▁Sex	-11.3683
▁grandfather	-11.3685
▁pleaded	-11.3685
▁credentials	-11.3686
▁gray	-11.3686
▁SEC	-11.3687
▁derived	-11.3688
▁compliance	-11.3688
▁Search	-11.3688
▁Johnny	-11.369
▁Stay	-11.369
▁eighth	-11.3691
▁mo	-11.3691
▁bedroom	-11.3694
▁rice	-11.3694
▁ptr	-11.3695
▁Fall	-11.3697
▁auction	-11.37
sch	-11.3702
▁boxes	-11.3704
▁locker	-11.3705
▁chronic	-11.3706
▁trailer	-11.3708
▁Track	-11.3709
▁che	-11.371
▁supporter	-11.3711
▁continent	-11.3712
▁differently	-11.3713
▁encountered	-11.3718
▁Sciences	-11.3718
▁rushed	-11.3725
▁neo	-11.373
▁mentally	-11.3731
▁Warriors	-11.3733
▁unity	-11.3734
Get	-11.3735
▁Rand	-11.3739
▁barr	-11.3742
tte	-11.3744
▁belonging	-11.3747
arian	-11.3752
▁Patriots	-11.3754
▁breathing	-11.3755
▁5,000	-11.3759
▁pub	-11.3759
▁credits	-11.3759
rsus	-11.3767
▁preferences	-11.3772
▁farming	-11.3772
▁winds	-11.3772
▁Blues	-11.3773
▁raped	-11.3775
▁secured	-11.3777
▁enabled	-11.378
▁median	-11.378
▁Kenya	-11.3788
▁balanced	-11.3789
▁ON	-11.379
▁0%	-11.3791
Whatever	-11.3796
port	-11.3802
▁algorithm	-11.3802
▁Save	-11.3803
6%	-11.3805
ama	-11.381
▁worthy	-11.3814
▁permits	-11.3818
▁Hol	-11.382
0000000000000152	-11.3824
▁yard	-11.3827
qu	-11.3827
▁costly	-11.383
▁presents	-11.3831
PM	-11.3836
eg	-11.3837
▁Pop	-11.3839
▁economists	-11.3845
▁Corp	-11.3848
3)	-11.385
▁jumping	-11.3855
▁Posts	-11.3855
▁Event	-11.386
▁waited	-11.3861
▁spreading	-11.3865
▁disagree	-11.3866
▁disappear	-11.3867
▁chip	-11.3867
ill	-11.3869
▁Germans	-11.3871
person	-11.3871
▁cluster	-11.3875
ck	-11.388
▁Bon	-11.3882
box	-11.3887
▁directions	-11.389
▁migration	-11.3892
▁(19	-11.3894
▁24-	-11.3895
▁fingers	-11.3896
▁lesbian	-11.3898
▁patrol	-11.3901
▁ritual	-11.3902
read	-11.3902
▁concentration	-11.3903
▁Islamist	-11.3903
▁variable	-11.3904
▁dive	-11.3904
▁Student	-11.3905
▁discount	-11.3907
▁photographer	-11.391
▁Operation	-11.392
▁PT	-11.3922
▁15-	-11.3924
color	-11.3927
high	-11.3933
▁Cap	-11.3935
4000000000000150	-11.3937
▁Wind	-11.3938
ries	-11.394
▁bottles	-11.3942
government	-11.3946
kar	-11.3946
After	-11.3951
display	-11.3951
century	-11.3951
▁sink	-11.3951
▁Andre	-11.3951
▁gifts	-11.3952
076	-11.3953
check	-11.3955
home	-11.3971
PD	-11.3972
▁premier	-11.3975
linear	-11.398
400	-11.3981
Con	-11.3984
zo	-11.3985
▁researcher	-11.3993
6000000000000152	-11.3995
▁conclusions	-11.3999
▁occurs	-11.4002
▁winners	-11.4002
▁Ring	-11.4003
▁disclose	-11.4006
▁dangers	-11.4007
▁gig	-11.4008
2000000000000150	-11.4009
▁characterize	-11.401
▁nurse	-11.4012
▁Bryan	-11.4014
▁fulfill	-11.4017
▁emphasize	-11.4018
▁profound	-11.4019
▁theft	-11.402
▁mechanical	-11.4022
▁Pin	-11.4023
▁79	-11.4024
ang	-11.4029
▁earlie	-11.4029
▁sovereign	-11.4031
▁Prophet	-11.4032
▁Seahawks	-11.4032
▁consecutive	-11.4032
▁elevate	-11.4032
▁ministry	-11.4032
▁horrible	-11.4032
▁prosecute	-11.4032
▁essence	-11.4032
▁inevitably	-11.4032
▁Muhammad	-11.4032
▁creativity	-11.4032
▁Software	-11.4032
▁convenient	-11.4032
▁boundaries	-11.4032
▁victories	-11.4032
▁Large	-11.4032
▁dumb	-11.4032
▁straightforward	-11.4032
▁Website	-11.4032
▁societies	-11.4032
▁Dennis	-11.4032
▁Thailand	-11.4032
▁duties	-11.4032
▁Kenny	-11.4032
▁Jimmy	-11.4032
▁manipulation	-11.4033
▁Something	-11.4033
▁nationwide	-11.4033
▁teeth	-11.4033
▁spacecraft	-11.4033
▁UCLA	-11.4033
▁Nobel	-11.4033
▁Benjamin	-11.4033
▁Corbyn	-11.4033
▁continually	-11.4033
▁Homeland	-11.4033
▁Carson	-11.4034
▁Swiss	-11.4034
▁chocolate	-11.4034
▁delete	-11.4034
▁travelling	-11.4034
▁inventory	-11.4034
▁testified	-11.4034
▁attendance	-11.4034
▁postseason	-11.4034
▁$7	-11.4035
▁reign	-11.4035
▁corrupt	-11.4035
▁ammunition	-11.4035
▁Terry	-11.4035
▁factories	-11.4036
▁ultra	-11.4036
▁transparency	-11.4036
▁physics	-11.4036
▁Breitbart	-11.4036
▁pleasure	-11.4036
▁unveiled	-11.4037
▁Wallace	-11.4037
▁confused	-11.4037
▁duo	-11.4037
▁Level	-11.4038
▁Pence	-11.4038
▁Madison	-11.4039
IA	-11.404
▁economically	-11.404
▁coastal	-11.404
▁misleading	-11.4041
▁Listen	-11.4041
▁commentator	-11.4041
▁Sandy	-11.4041
▁Tesla	-11.4042
▁explicitly	-11.4042
▁Target	-11.4042
NET	-11.4042
▁IBM	-11.4043
▁Single	-11.4045
▁justified	-11.4045
▁grey	-11.4045
div	-11.4046
▁Workers	-11.4046
▁instantly	-11.4047
▁RAM	-11.4048
▁austerity	-11.4048
▁Statistics	-11.4048
▁Imagine	-11.4048
▁lion	-11.4049
▁reply	-11.4049
▁socialism	-11.4051
6000000000000151	-11.4051
▁equipped	-11.4051
▁Michel	-11.4052
▁Oscar	-11.4053
▁smarter	-11.4053
▁AMD	-11.4055
▁50%	-11.4056
▁kernel	-11.4057
▁spott	-11.4059
▁ONE	-11.4059
▁critique	-11.406
▁Had	-11.4063
▁recruiting	-11.4064
▁arch	-11.4064
▁trapped	-11.4067
▁dismiss	-11.4068
▁authorized	-11.4068
wer	-11.407
▁Learning	-11.407
▁ALL	-11.4073
▁Ham	-11.4073
▁seeks	-11.4074
▁Deal	-11.4078
▁Select	-11.4079
▁annually	-11.408
▁Lane	-11.4085
▁parameters	-11.4086
▁boards	-11.4087
▁ears	-11.4088
▁studios	-11.4091
▁gamers	-11.4091
▁slight	-11.4095
▁criminals	-11.4096
forcing	-11.4099
▁survivors	-11.41
▁shootings	-11.4103
▁welcomed	-11.4106
▁Cat	-11.4108
sson	-11.411
▁prey	-11.4116
mit	-11.4117
▁independently	-11.4118
▁traits	-11.4119
▁Low	-11.412
▁desired	-11.4124
ator	-11.4124
CH	-11.4125
▁wondered	-11.4126
▁touchdowns	-11.4133
▁cancel	-11.4134
▁awards	-11.4135
▁collecting	-11.4138
▁troubled	-11.414
▁Sound	-11.4143
▁skilled	-11.4144
aka	-11.4148
▁Ni	-11.4158
▁Maximu	-11.4159
▁whites	-11.4162
457	-11.4165
▁Mode	-11.4165
▁Mus	-11.4166
▁screens	-11.4166
his	-11.4166
start	-11.4168
▁Ge	-11.4176
▁operators	-11.418
▁MS	-11.4181
▁NO	-11.4182
▁alternatives	-11.4184
▁98	-11.4188
▁proportion	-11.42
▁lately	-11.42
▁Author	-11.4202
▁govern	-11.4205
▁$9	-11.4208
370	-11.4215
▁Chip	-11.4216
▁Net	-11.4218
▁Roger	-11.4233
elle	-11.424
▁photographs	-11.4243
▁distinguish	-11.4252
▁heaven	-11.4252
talk	-11.4253
▁sounded	-11.4255
▁mechanisms	-11.4257
▁measur	-11.4263
▁cats	-11.4263
▁abuses	-11.4269
▁URL	-11.427
▁essay	-11.427
She	-11.4271
▁slot	-11.4271
▁template	-11.4271
▁closure	-11.4272
▁attraction	-11.4273
▁celebration	-11.4273
▁certificate	-11.4273
▁obligation	-11.4274
▁Cast	-11.4274
▁breed	-11.4274
▁variation	-11.4274
▁muscle	-11.4275
▁vocal	-11.4277
▁beats	-11.4278
▁warn	-11.4279
▁disclosure	-11.4286
▁brick	-11.4287
▁lake	-11.4288
▁offset	-11.4289
▁font	-11.4291
▁nano	-11.4291
ala	-11.4292
▁15,	-11.4293
boy	-11.4293
▁Word	-11.4304
054	-11.4306
▁immigrant	-11.4308
▁1.0	-11.4309
ack	-11.431
ology	-11.4313
generation	-11.4319
white	-11.4319
productive	-11.4319
AL	-11.432
▁abandon	-11.4326
▁Heart	-11.4327
▁harvest	-11.4328
ella	-11.433
▁criticise	-11.4335
there	-11.4336
▁Mine	-11.434
336	-11.4342
▁achiev	-11.4342
5)	-11.4348
▁attitudes	-11.4348
▁Sri	-11.4349
▁worlds	-11.435
▁greet	-11.4354
link	-11.4357
pper	-11.4359
▁hype	-11.4359
1)	-11.4362
▁Yu	-11.4367
▁retire	-11.4371
▁analyze	-11.4375
▁fights	-11.4378
tarring	-11.4381
▁Kid	-11.4381
▁Wolf	-11.4384
▁1.3	-11.4388
▁ideological	-11.4388
▁relax	-11.4391
▁inappropriate	-11.4391
▁cream	-11.4392
SS	-11.4392
▁Hit	-11.4394
▁convey	-11.4395
dy	-11.4397
oh	-11.4399
▁Ronald	-11.44
▁Access	-11.44
tal	-11.44
▁courage	-11.4401
▁editors	-11.4401
▁conscious	-11.4402
▁flour	-11.4402
Available	-11.4402
▁Roosevelt	-11.4402
▁delicious	-11.4402
▁gorgeous	-11.4402
▁ADVERTISEMENT	-11.4402
▁fierce	-11.4402
▁philosophical	-11.4402
▁purchasing	-11.4402
▁Douglas	-11.4402
▁casualties	-11.4402
▁Arctic	-11.4402
▁beloved	-11.4402
▁hypothesis	-11.4402
▁Draft	-11.4402
▁Campaign	-11.4402
▁irrelevant	-11.4402
▁altogether	-11.4403
▁portfolio	-11.4403
▁Airport	-11.4403
▁substitute	-11.4403
▁hatred	-11.4403
▁frozen	-11.4403
▁Exchange	-11.4403
▁problematic	-11.4403
▁Spencer	-11.4403
▁replacing	-11.4403
▁Ultra	-11.4403
▁Better	-11.4403
▁neat	-11.4404
▁Berkeley	-11.4404
▁Cincinnati	-11.4404
▁Eventually	-11.4404
▁Harvey	-11.4404
▁Pearl	-11.4404
▁decisive	-11.4404
▁thirty	-11.4404
▁embedded	-11.4404
▁Either	-11.4404
▁Phone	-11.4404
▁Getting	-11.4404
▁aftermath	-11.4404
▁Lynch	-11.4404
▁intersection	-11.4404
▁declaring	-11.4405
041	-11.4405
▁Palmer	-11.4405
▁NFC	-11.4405
▁Touch	-11.4405
▁sovereignty	-11.4405
▁salaries	-11.4406
▁nonsense	-11.4406
▁nickname	-11.4407
▁Survey	-11.4407
▁patches	-11.4407
▁1985	-11.4407
▁plug	-11.4408
▁uncle	-11.4409
▁parade	-11.4409
▁Colin	-11.441
▁Brazilian	-11.441
▁Lebanon	-11.441
▁hammer	-11.441
▁Stanford	-11.441
▁slavery	-11.441
▁authentic	-11.441
▁distant	-11.4413
▁glory	-11.4413
▁Mitt	-11.4413
▁PHP	-11.4414
▁wrestling	-11.4416
▁Arabic	-11.4418
▁nowhere	-11.4418
▁Loading	-11.4418
▁Title	-11.4419
▁revise	-11.4422
▁searches	-11.4423
▁ignor	-11.4424
▁desperately	-11.4425
▁portrayed	-11.4426
▁grass	-11.4428
▁disappeared	-11.4432
▁Brothers	-11.4434
▁panels	-11.4434
▁pledged	-11.4441
▁lap	-11.4441
▁slower	-11.4442
MA	-11.4443
▁regret	-11.4444
▁engines	-11.4445
▁posed	-11.4447
▁3)	-11.4452
▁restricted	-11.4453
cal	-11.4453
600	-11.446
intentionally	-11.4464
▁Stand	-11.4464
▁hip	-11.4465
▁obstacles	-11.4468
▁worn	-11.4472
▁Goldman	-11.4475
▁Working	-11.4476
TH	-11.4476
▁Islands	-11.4478
hr	-11.4478
▁String	-11.4482
▁sued	-11.4482
ria	-11.4489
News	-11.449
▁Bros	-11.4492
▁Inside	-11.4495
▁facilitate	-11.4496
0000000	-11.4502
▁instruments	-11.4503
▁1972	-11.4507
uffington	-11.4508
ii	-11.4509
dale	-11.4511
▁14,	-11.4512
▁suggestions	-11.4513
▁carriers	-11.4517
nic	-11.4519
▁Nine	-11.452
▁(5	-11.452
▁meta	-11.4522
▁Falls	-11.4541
▁lasted	-11.4543
▁touched	-11.4546
▁93	-11.4547
▁worship	-11.4552
integrated	-11.4555
▁privately	-11.4557
cur	-11.4559
▁affiliate	-11.4565
▁pets	-11.4567
Ch	-11.4575
▁creators	-11.4581
▁Ta	-11.4583
▁heated	-11.4583
hy	-11.4586
ane	-11.459
▁remembered	-11.4591
▁disorders	-11.4591
-7	-11.4594
▁bases	-11.46
▁violat	-11.4603
▁enjoying	-11.4605
▁fires	-11.4606
▁interactions	-11.4606
▁peers	-11.4612
▁initiatives	-11.4616
▁shake	-11.4621
▁ma	-11.4622
ION	-11.4624
▁plates	-11.4627
▁relate	-11.463
▁reviewed	-11.4633
▁Anne	-11.4637
▁heating	-11.4637
▁avoided	-11.4639
▁Planne	-11.464
▁hook	-11.4643
ice	-11.4646
▁premise	-11.465
▁favourite	-11.465
very	-11.4652
▁earthquake	-11.4653
▁podcast	-11.4654
▁folder	-11.4654
▁chamber	-11.4656
▁origins	-11.4656
▁aesthetic	-11.4656
▁teenager	-11.4657
▁Fu	-11.4657
▁observation	-11.4658
▁explosive	-11.4659
▁Guard	-11.466
▁Rule	-11.466
bin	-11.466
▁rumor	-11.4661
▁egg	-11.4661
▁sequences	-11.4661
▁investor	-11.4663
▁exports	-11.4663
pa	-11.4663
SD	-11.4665
▁Sh	-11.4666
▁quo	-11.4666
▁63	-11.467
fec	-11.467
cast	-11.4671
half	-11.4671
▁blogs	-11.4672
▁2004,	-11.4677
▁Bulls	-11.468
data	-11.468
ram	-11.4681
though	-11.4682
▁neutral	-11.4683
▁surge	-11.4684
▁mod	-11.4686
▁Eye	-11.4687
een	-11.4688
▁Picture	-11.4695
▁accus	-11.4701
school	-11.4701
▁IV	-11.4701
▁fence	-11.4702
natural	-11.4703
drew	-11.4704
alpha	-11.4704
specific	-11.4706
▁Shi	-11.4706
first	-11.4707
anda	-11.4707
▁aired	-11.4707
▁teen	-11.4707
▁pray	-11.4712
after	-11.4713
▁Type	-11.4713
▁jokes	-11.4719
▁timeline	-11.4723
▁complet	-11.4729
four	-11.473
▁modes	-11.4733
▁fr	-11.4737
burn	-11.4739
▁Dee	-11.474
▁Critic	-11.4745
▁Cuba	-11.4749
▁fabric	-11.4751
▁hint	-11.4759
anne	-11.476
▁Speed	-11.4761
These	-11.4763
▁Say	-11.4764
▁Tre	-11.4764
ister	-11.4765
▁ranking	-11.4766
▁royal	-11.4767
▁Russians	-11.4773
▁unfortunate	-11.4774
▁dam	-11.4775
▁questioning	-11.4775
▁13,	-11.4777
▁guilt	-11.4777
▁notorious	-11.4779
▁Adams	-11.4781
▁Puerto	-11.4784
▁loyal	-11.4785
ari	-11.4785
▁Baker	-11.4785
▁Universal	-11.4785
▁elevator	-11.4787
▁grateful	-11.4787
▁orientation	-11.4787
▁twelve	-11.4787
▁Idaho	-11.4787
▁Nokia	-11.4787
▁accompany	-11.4787
▁residence	-11.4787
▁believing	-11.4787
▁Denmark	-11.4787
▁economies	-11.4787
▁tolerance	-11.4787
▁administer	-11.4787
pl	-11.4787
▁Relations	-11.4787
▁vacation	-11.4787
▁grabbed	-11.4787
▁Regardless	-11.4787
▁interference	-11.4787
▁governance	-11.4787
▁unlimited	-11.4787
▁faculty	-11.4787
▁declaration	-11.4788
▁fancy	-11.4788
▁felony	-11.4788
▁penis	-11.4788
▁Together	-11.4788
▁advocacy	-11.4788
▁enthusiasm	-11.4788
▁Samuel	-11.4788
▁tennis	-11.4789
▁Highway	-11.4789
▁Gray	-11.479
▁Anyway	-11.479
▁outrageous	-11.479
▁inclusion	-11.479
▁exploitation	-11.479
▁acquisition	-11.4791
▁placing	-11.4791
▁subway	-11.4791
▁gradually	-11.4791
▁Off	-11.4792
gh	-11.4792
▁Nixon	-11.4792
▁hungry	-11.4792
▁Wayne	-11.4793
▁1988	-11.4793
▁rotation	-11.4793
▁Noah	-11.4794
▁teaches	-11.4794
▁tourism	-11.4794
▁offseason	-11.4795
▁Foster	-11.4795
▁Campbell	-11.4795
▁chaos	-11.4795
▁sexuality	-11.4795
▁Zero	-11.4795
▁flights	-11.4796
▁1920	-11.4797
▁outlook	-11.4797
▁dubbed	-11.4797
▁Content	-11.4798
▁Hispanic	-11.4798
▁Ultimately	-11.48
▁tired	-11.4802
▁fits	-11.4807
▁compatible	-11.4808
▁Delta	-11.4809
..."	-11.481
▁Tri	-11.4812
▁Den	-11.4812
▁quietly	-11.4813
▁Personal	-11.4813
▁Movie	-11.4814
MAN	-11.4814
▁PDF	-11.4815
▁Metal	-11.4816
▁Communications	-11.482
▁fundamentally	-11.482
▁References	-11.482
▁buffer	-11.482
▁chemicals	-11.4821
▁Wait	-11.4821
▁cache	-11.4822
▁publicity	-11.4822
▁filmed	-11.4823
▁addiction	-11.4824
▁subscribers	-11.4825
▁midst	-11.4826
▁observers	-11.4831
▁ramp	-11.4838
▁Chile	-11.4839
▁Modi	-11.4844
2000000000000152	-11.4844
▁shy	-11.4846
▁transformed	-11.485
▁WR	-11.4851
▁max	-11.4853
▁investing	-11.4856
▁collapsed	-11.486
▁hash	-11.4861
ps	-11.4862
▁participated	-11.4863
grocery	-11.4863
▁pitched	-11.4865
▁Jacob	-11.4867
▁strangers	-11.4877
▁behaviors	-11.4878
▁anytime	-11.4879
▁rushing	-11.488
rn	-11.4882
▁defendants	-11.4883
illa	-11.4883
▁Date	-11.4886
070	-11.4889
mg	-11.49
▁bust	-11.49
▁kicking	-11.4901
saki	-11.4904
▁sticking	-11.4912
▁imagined	-11.4914
▁worrying	-11.4919
▁laying	-11.492
pro	-11.4921
▁beings	-11.4923
▁reasonabl	-11.4923
▁financially	-11.4925
▁trusted	-11.4927
▁Beck	-11.4927
St	-11.4928
▁Ono	-11.493
▁committ	-11.4938
▁inbox	-11.4939
▁insider	-11.4944
order	-11.4947
▁crops	-11.4951
▁defenders	-11.4953
ight	-11.4954
▁Milan	-11.4959
▁und	-11.496
▁predictions	-11.4968
▁spells	-11.4968
maker	-11.4969
signed	-11.4984
▁bonds	-11.4985
ano	-11.4985
▁Ly	-11.5005
▁cleaning	-11.5008
▁sh	-11.5011
▁performances	-11.5011
craft	-11.5013
▁volunteer	-11.5015
▁colleges	-11.5017
▁newsletters	-11.5019
▁es	-11.5023
fore	-11.5029
▁recipes	-11.503
▁infant	-11.5034
LE	-11.5035
▁Maria	-11.5039
▁fleet	-11.5039
▁surveys	-11.5042
▁wet	-11.5043
▁kingdom	-11.5047
▁Travel	-11.5049
▁Scroll	-11.505
352	-11.5051
SU	-11.5053
▁preach	-11.5053
▁diamond	-11.5053
step	-11.5055
▁puzzle	-11.5056
▁libertarian	-11.5056
▁advertisement	-11.5058
▁preparation	-11.5058
▁(1)	-11.5059
▁Egyptian	-11.5059
▁Shadow	-11.506
▁consequence	-11.506
▁militia	-11.5061
▁arrangement	-11.5061
▁Standard	-11.5062
▁Subject	-11.5065
▁cents	-11.5066
1000000000000151	-11.5067
▁slice	-11.5068
afa	-11.5071
▁contributor	-11.5071
▁instruction	-11.5074
▁nail	-11.5074
0000000000000151	-11.5076
ese	-11.5078
▁Value	-11.5081
▁fiber	-11.5082
stream	-11.5085
IP	-11.5088
▁77	-11.5089
fire	-11.5098
▁bow	-11.5101
▁bikes	-11.5103
Last	-11.5108
UTC	-11.5108
plus	-11.5108
▁pound	-11.5112
▁punch	-11.5112
iel	-11.5113
▁twist	-11.5117
▁18,	-11.5117
▁container	-11.5119
▁nutrition	-11.5123
beta	-11.5123
▁Hart	-11.5123
▁pp	-11.5134
▁Susan	-11.5134
bus	-11.5148
far	-11.515
working	-11.5151
▁haunt	-11.5155
▁sentences	-11.5155
▁attach	-11.5158
▁matching	-11.5162
USA	-11.5164
▁sustain	-11.5165
▁Bio	-11.5167
▁AR	-11.5167
gg	-11.5168
DT	-11.5168
▁distribute	-11.5171
eastern	-11.5172
▁intimate	-11.5173
▁manual	-11.5176
▁hill	-11.5179
▁Visual	-11.518
▁enhance	-11.518
▁Victor	-11.518
▁1/2	-11.5183
▁charter	-11.5183
▁Indonesia	-11.5185
cent	-11.5185
▁Tokyo	-11.5187
▁Bangladesh	-11.5187
▁Barcelona	-11.5187
▁FIFA	-11.5187
▁Gandhi	-11.5187
▁Mercedes	-11.5187
▁convincing	-11.5187
▁mixture	-11.5187
▁pregnancy	-11.5187
▁surrender	-11.5187
▁catastrophic	-11.5187
▁denounce	-11.5187
▁vibrant	-11.5187
▁Brussels	-11.5187
▁Cabinet	-11.5187
▁solidarity	-11.5187
▁grandmother	-11.5187
▁Midnight	-11.5187
▁biography	-11.5187
▁Delaware	-11.5187
▁Glenn	-11.5187
▁LeBron	-11.5187
▁inequality	-11.5187
▁deportation	-11.5187
▁Edge	-11.5187
▁brains	-11.5187
▁cancelled	-11.5187
▁uncertainty	-11.5187
▁doctrine	-11.5187
▁suburban	-11.5187
▁Nancy	-11.5187
▁nerve	-11.5187
▁mandatory	-11.5187
▁coordinator	-11.5188
▁legendary	-11.5188
▁Juan	-11.5188
▁Scholar	-11.5188
▁Koch	-11.5188
▁Arnold	-11.5189
▁Century	-11.5189
▁Trudeau	-11.5189
▁Tehran	-11.5189
▁Finance	-11.5189
▁meditation	-11.5189
▁Dawn	-11.5189
▁80%	-11.5189
▁colorful	-11.519
▁detection	-11.519
▁mindset	-11.5191
▁sisters	-11.5191
▁Luis	-11.5192
▁mentality	-11.5192
▁persistent	-11.5192
▁slipped	-11.5192
▁Argentina	-11.5192
▁Apparently	-11.5192
▁exhibition	-11.5192
▁intact	-11.5192
▁BJP	-11.5192
▁Cohen	-11.5193
▁Karen	-11.5193
▁Location	-11.5193
▁Shaw	-11.5194
▁Ian	-11.5194
▁WikiLeaks	-11.5195
▁judicial	-11.5195
▁Bloomberg	-11.5195
▁Superman	-11.5195
▁Curry	-11.5195
▁spite	-11.5196
▁Basically	-11.5196
▁lazy	-11.5196
▁flawed	-11.5196
▁Self	-11.5196
▁elderly	-11.5196
▁pink	-11.5197
▁hostile	-11.5197
▁Sunni	-11.5197
▁Engineering	-11.5197
▁Fourth	-11.5198
▁dawn	-11.5199
▁glasses	-11.5201
▁Task	-11.5201
▁cake	-11.5203
▁reflection	-11.5203
▁hence	-11.5203
▁fictional	-11.5204
▁Spurs	-11.5205
▁unfortunately	-11.5205
▁underway	-11.5205
▁styles	-11.5206
▁Recently	-11.5206
▁solving	-11.5207
▁bullying	-11.5209
▁prohibited	-11.5212
▁liberals	-11.5212
▁photography	-11.5213
▁supportive	-11.5213
ap	-11.5216
▁initiated	-11.5216
▁canceled	-11.5218
ima	-11.522
▁Along	-11.5221
▁UC	-11.5225
▁Hamas	-11.5226
▁randomly	-11.5227
▁Walk	-11.5229
▁Few	-11.5232
025	-11.5234
▁throws	-11.5241
▁detected	-11.5241
▁Vikings	-11.5242
▁Ducks	-11.5243
▁educated	-11.5244
▁useless	-11.5245
▁Notes	-11.5247
pound	-11.5248
▁organizers	-11.5248
▁hackers	-11.525
▁steam	-11.525
▁suits	-11.5252
▁ports	-11.5257
sha	-11.526
pre	-11.5262
▁donors	-11.5264
ons	-11.5267
▁seal	-11.5268
▁Gilbert	-11.527
▁Records	-11.5275
▁contractors	-11.5276
120	-11.5278
▁flowers	-11.5281
.2%	-11.5281
▁extremists	-11.5285
▁clan	-11.5289
▁theoretical	-11.5291
▁afterwards	-11.5295
hard	-11.5296
▁leagues	-11.53
▁99	-11.5301
▁operates	-11.5301
▁shower	-11.5302
▁81	-11.5303
og	-11.5304
▁ensur	-11.5306
▁historians	-11.5311
▁ST	-11.5314
▁Val	-11.5316
▁arrangements	-11.5317
▁siege	-11.5323
023	-11.5326
▁cult	-11.5335
▁united	-11.5338
▁Sand	-11.5338
▁28,	-11.5339
▁110	-11.534
▁switching	-11.5345
096	-11.5345
▁seniors	-11.5346
▁mi	-11.5348
▁dimension	-11.535
▁Than	-11.5352
minded	-11.5362
▁publishers	-11.5362
▁wounds	-11.537
ach	-11.5372
▁Cha	-11.5372
▁organisations	-11.5376
▁incentives	-11.5376
▁Planet	-11.5381
▁78	-11.5387
cap	-11.5391
▁reproduce	-11.5398
▁processed	-11.5398
▁commented	-11.5409
▁threaten	-11.5412
▁Mint	-11.5416
▁limiting	-11.5417
va	-11.5419
Do	-11.542
▁Works	-11.5428
▁Tune	-11.5428
▁12,	-11.5433
pt	-11.5438
▁locally	-11.5439
nes	-11.544
lam	-11.5441
▁z	-11.5441
8)	-11.5442
▁partisan	-11.5443
▁triple	-11.5444
▁stunt	-11.5445
▁11:	-11.5446
▁lease	-11.5448
gov	-11.5452
▁3:	-11.5452
▁Links	-11.5454
.[9]	-11.5455
▁Honor	-11.5464
▁enforce	-11.5466
▁collision	-11.5469
▁demographic	-11.547
▁installation	-11.5471
▁layout	-11.5471
▁Devil	-11.5472
▁slogan	-11.5472
▁visa	-11.5472
▁associations	-11.5472
▁rifle	-11.5473
▁assumption	-11.5474
▁boast	-11.5474
fall	-11.5475
▁carrier	-11.5475
jan	-11.5477
▁historian	-11.5478
▁prayer	-11.548
▁coupled	-11.5483
▁confine	-11.5484
▁expectation	-11.5486
▁serial	-11.5486
▁scan	-11.5489
▁25-	-11.5494
▁farms	-11.5496
▁customs	-11.5499
ning	-11.5499
▁18.	-11.5504
▁schemes	-11.5505
?)	-11.5506
ado	-11.5508
▁Direct	-11.5509
▁upgrades	-11.551
▁ne	-11.5511
market	-11.5512
▁preview	-11.5514
▁brew	-11.5514
3000000000000152	-11.5517
▁kicks	-11.5517
▁paths	-11.5518
▁Kit	-11.5519
▁12-	-11.552
second	-11.5521
Made	-11.5524
Upon	-11.5527
▁Vol	-11.553
▁crowds	-11.5535
▁par	-11.5537
elect	-11.5539
▁trap	-11.5548
sp	-11.555
▁Clean	-11.5551
▁Days	-11.5553
▁Leon	-11.5555
▁steer	-11.5556
▁donation	-11.5557
▁scout	-11.5557
around	-11.5558
▁albums	-11.5558
▁null	-11.557
▁persuade	-11.5571
▁prompt	-11.5574
▁grows	-11.5574
ium	-11.558
RA	-11.5584
▁170	-11.5585
ell	-11.5587
▁mild	-11.559
▁render	-11.5591
▁los	-11.5595
001	-11.5598
▁Environment	-11.5599
▁excess	-11.5599
ens	-11.5602
▁horizon	-11.5603
▁Virgin	-11.5603
▁Jamie	-11.5603
▁Brisbane	-11.5603
▁Fantasy	-11.5603
▁Lincoln	-11.5603
▁adjacen	-11.5603
▁bolster	-11.5603
▁calendar	-11.5603
▁deputies	-11.5603
▁prevail	-11.5603
▁vacuum	-11.5603
▁Parenthood	-11.5603
▁iTunes	-11.5603
▁psychology	-11.5603
▁linebacker	-11.5603
▁communicating	-11.5603
▁unanimous	-11.5603
▁Taiwan	-11.5603
▁liberty	-11.5603
▁steep	-11.5603
▁electorate	-11.5603
▁Defence	-11.5603
▁delegation	-11.5603
▁dairy	-11.5603
▁HIV	-11.5604
▁breakfast	-11.5604
▁recruitment	-11.5604
▁considerably	-11.5604
▁Creek	-11.5604
▁proposition	-11.5604
▁Martinez	-11.5604
▁Enterprise	-11.5604
▁correspondent	-11.5604
▁Tommy	-11.5604
▁readily	-11.5605
▁Norwegian	-11.5605
▁presumably	-11.5605
▁Sacramento	-11.5605
▁quantity	-11.5605
▁Chase	-11.5605
▁genocide	-11.5606
▁frustrated	-11.5606
▁Strike	-11.5606
▁embarrassing	-11.5606
▁Rio	-11.5607
▁compiler	-11.5607
▁Kerry	-11.5608
▁Million	-11.5608
▁Banks	-11.5609
▁Gaddafi	-11.5609
▁FOX	-11.5609
▁1967	-11.561
▁Ahmed	-11.561
▁Ah	-11.561
▁completion	-11.5611
▁1965	-11.5611
▁1973	-11.5612
▁Blog	-11.5612
▁heroes	-11.5612
▁Experience	-11.5612
▁fundraising	-11.5612
▁Herald	-11.5612
▁Index	-11.5612
▁Polish	-11.5612
▁earning	-11.5613
▁Joel	-11.5613
▁foul	-11.5613
▁biology	-11.5613
▁haul	-11.5613
▁mall	-11.5614
▁DNC	-11.5614
▁illustrate	-11.5614
▁shapes	-11.5615
▁powder	-11.5616
▁fitness	-11.5616
▁precision	-11.5616
▁disturbing	-11.5616
path	-11.5617
▁confronted	-11.5618
▁Unity	-11.5619
▁Okay	-11.5622
▁routinely	-11.5623
▁Dame	-11.5623
▁1982	-11.5623
▁modify	-11.5625
▁boyfriend	-11.5626
amp	-11.5627
/1	-11.5627
▁symbolic	-11.5627
▁trafficking	-11.5628
▁females	-11.5629
▁Politics	-11.5631
▁notified	-11.5633
▁tougher	-11.5633
▁Newton	-11.5633
▁excluded	-11.5636
▁Raider	-11.5638
▁condemned	-11.5639
▁Aid	-11.5642
▁restart	-11.5644
▁Weekly	-11.5647
ire	-11.5648
▁seventh	-11.5648
▁historically	-11.565
▁Brooks	-11.565
000000000	-11.5651
▁Lab	-11.5652
▁translated	-11.5654
▁viewer	-11.5655
▁Gore	-11.5656
▁queue	-11.5656
▁pi	-11.5657
▁Continued	-11.5658
gue	-11.5658
▁corresponding	-11.566
▁hacking	-11.5663
eau	-11.5672
▁hosts	-11.5672
▁FA	-11.5673
▁Joined	-11.5673
▁Updated	-11.5677
nik	-11.5678
▁sooner	-11.5678
▁0.3	-11.5682
▁1%	-11.5684
▁sponsored	-11.5684
▁Wa	-11.5685
▁recovering	-11.569
▁16.	-11.5693
▁taxpayers	-11.5695
ston	-11.5696
▁Son	-11.5697
▁firmly	-11.5698
▁cook	-11.57
▁insert	-11.5705
print	-11.5707
▁MMA	-11.5709
▁norms	-11.5714
▁debuted	-11.5716
▁Cold	-11.572
sey	-11.5722
▁aide	-11.5725
▁overtime	-11.5727
▁Fla	-11.573
▁attackers	-11.5732
▁upside	-11.5733
▁zones	-11.5735
bad	-11.5738
-9	-11.5741
▁shed	-11.5744
▁speeds	-11.5746
▁Des	-11.5747
fold	-11.5747
▁Oz	-11.5751
▁Dem	-11.5752
AD	-11.5752
▁announc	-11.5753
▁projected	-11.5753
cher	-11.5756
▁chips	-11.5756
▁integra	-11.5758
▁Lives	-11.5762
away	-11.5768
▁poses	-11.5774
▁96	-11.5775
▁backers	-11.5776
▁bearing	-11.5776
▁Ra	-11.5778
▁dropp	-11.5778
▁tensions	-11.5778
▁beard	-11.5779
▁grip	-11.5779
▁76	-11.5779
▁faithful	-11.5783
▁$500	-11.5785
▁71	-11.5785
▁drones	-11.5795
▁audit	-11.5795
LA	-11.5796
▁operational	-11.5798
▁char	-11.58
▁Gene	-11.5801
500	-11.5804
▁Too	-11.5805
tor	-11.5806
▁forums	-11.5806
▁courses	-11.5808
tech	-11.5811
reby	-11.5815
▁cave	-11.5818
▁Mor	-11.582
▁Sar	-11.5822
▁1969	-11.5823
▁pension	-11.5824
nen	-11.5824
pp	-11.5826
ians	-11.5832
▁monument	-11.5834
ub	-11.5834
▁expenses	-11.5834
cm	-11.5839
055	-11.5842
▁cultures	-11.5849
▁utter	-11.5853
▁Posted	-11.5857
077	-11.586
▁smartphones	-11.5862
▁toys	-11.5864
rum	-11.5865
▁13.	-11.5866
▁affecting	-11.5866
▁pause	-11.5871
▁casting	-11.5872
▁Drug	-11.5872
handed	-11.5875
▁depict	-11.5876
074	-11.5881
-15	-11.5881
TER	-11.5886
zy	-11.5887
▁invite	-11.5887
had	-11.5888
▁mg	-11.5891
eff	-11.5895
▁reasoning	-11.5897
▁align	-11.5898
▁antenna	-11.59
▁classroom	-11.59
▁denial	-11.5903
▁miracle	-11.5904
▁foundations	-11.5905
▁passport	-11.5905
▁pressed	-11.5906
▁emotion	-11.5906
▁NC	-11.5906
watch	-11.5907
▁clue	-11.5908
▁bundle	-11.5908
▁tunnel	-11.5908
▁Method	-11.5909
▁physician	-11.5909
▁anarchist	-11.5912
▁characteristic	-11.5913
▁cope	-11.5913
▁Hurricane	-11.5913
▁contribut	-11.5916
▁fo	-11.5916
▁suggestion	-11.5916
▁Mind	-11.5917
▁pitcher	-11.5926
Me	-11.593
ongressional	-11.5937
▁males	-11.5942
zer	-11.5945
▁startup	-11.5945
▁defin	-11.5945
▁disc	-11.595
▁boxing	-11.5952
▁metric	-11.5955
uff	-11.5955
Free	-11.5957
▁tournaments	-11.5958
good	-11.5959
worn	-11.596
aring	-11.5962
!!!	-11.5964
being	-11.5967
▁Bur	-11.5969
▁Natural	-11.597
su	-11.5971
powered	-11.5973
Yes	-11.5977
dom	-11.5978
089	-11.5978
▁runner	-11.598
▁op	-11.598
border	-11.5983
har	-11.5984
ius	-11.5988
▁95	-11.599
▁aboard	-11.5995
▁traditions	-11.5995
▁controll	-11.6004
▁Learn	-11.6005
▁distress	-11.6007
▁manufacture	-11.6008
065	-11.6015
▁suppose	-11.6017
▁concentrate	-11.6017
▁Table	-11.6022
Hito	-11.6022
▁explicit	-11.6025
▁functioning	-11.6027
▁poly	-11.6028
▁Adrian	-11.6028
038	-11.6029
▁TD	-11.6029
▁Race	-11.603
▁statue	-11.6031
▁contend	-11.6031
▁Fish	-11.6031
053	-11.6031
▁divisions	-11.6032
▁sandwich	-11.6035
▁absent	-11.6037
▁Progress	-11.6037
▁Aleppo	-11.6038
▁Ebola	-11.6038
▁Industry	-11.6038
▁Margaret	-11.6038
▁Nebraska	-11.6038
▁elaborate	-11.6038
▁frustrating	-11.6038
▁malware	-11.6038
▁negotiating	-11.6038
▁rallies	-11.6038
▁undoubted	-11.6038
culus	-11.6038
▁Sanchez	-11.6038
▁THAT	-11.6038
▁surpass	-11.6038
▁supplied	-11.6038
▁apology	-11.6038
▁Assistant	-11.6038
▁warehouse	-11.6038
▁detainee	-11.6038
▁rubber	-11.6038
▁laboratory	-11.6038
▁grasp	-11.6038
▁Regulation	-11.6038
▁niche	-11.6038
▁revive	-11.6038
▁Additional	-11.6038
▁Glover	-11.6039
▁minorities	-11.6039
▁termination	-11.6039
▁Emma	-11.6039
▁Palace	-11.6039
▁Grace	-11.6039
stop	-11.6039
▁shotgun	-11.6039
▁invitation	-11.6039
▁Truth	-11.6039
▁spotlight	-11.6039
▁Laura	-11.604
▁authentication	-11.604
▁armour	-11.604
▁interactive	-11.604
▁epidemic	-11.604
▁plasma	-11.604
▁predominant	-11.604
▁Private	-11.604
▁territories	-11.604
▁Surface	-11.604
▁Travis	-11.604
▁90%	-11.6041
▁Current	-11.6042
▁abstract	-11.6042
▁Tories	-11.6043
▁brave	-11.6043
▁workforce	-11.6044
▁Against	-11.6044
▁Fortunately	-11.6044
▁spectacular	-11.6044
▁generating	-11.6044
▁warfare	-11.6044
▁anxious	-11.6045
▁cargo	-11.6045
▁glow	-11.6045
▁Klein	-11.6045
▁Davidson	-11.6045
▁arc	-11.6045
▁(6	-11.6046
▁Marx	-11.6046
▁1981	-11.6047
▁Ubuntu	-11.6047
▁albeit	-11.6047
▁Belgian	-11.6048
▁Strong	-11.6048
▁hometown	-11.6048
▁Woman	-11.6048
▁Challenge	-11.6049
▁Brain	-11.6049
▁sophisticated	-11.6051
▁dancing	-11.6051
▁Cambridge	-11.6051
▁Casey	-11.6051
▁Raj	-11.6052
▁bull	-11.6052
▁manually	-11.6052
▁lure	-11.6053
▁Server	-11.6053
▁bleeding	-11.6054
▁Rico	-11.6054
▁mothers	-11.6054
▁optimal	-11.6055
▁contention	-11.6055
▁crown	-11.6056
246	-11.6056
▁MIT	-11.6057
▁cannon	-11.6058
▁amateur	-11.6058
▁adverse	-11.6058
string	-11.6059
▁forgot	-11.606
▁Pierre	-11.6061
▁Elite	-11.6062
▁Generation	-11.6064
▁kilometers	-11.6064
▁commerce	-11.6066
▁realised	-11.6066
▁sadly	-11.6069
1000000000000153	-11.6069
▁Yankees	-11.607
▁legislature	-11.607
▁Pr	-11.607
▁deleted	-11.6071
▁watches	-11.6072
▁oven	-11.6073
▁compiled	-11.6074
7,000	-11.6074
▁suitable	-11.6075
▁complaining	-11.6077
▁blown	-11.6079
▁counterparts	-11.6081
▁Tigers	-11.6081
▁masses	-11.6085
▁Ale	-11.6085
▁rendering	-11.6087
▁Monsters	-11.6087
▁DJ	-11.609
▁CBC	-11.6092
▁punished	-11.6093
eee	-11.6094
▁succeeded	-11.6094
▁restored	-11.6094
▁rats	-11.6095
▁2000.	-11.6095
▁laughing	-11.6098
▁5-	-11.6104
▁commissioned	-11.6105
5000000000000146	-11.6106
▁armor	-11.6109
▁Beer	-11.6112
▁crying	-11.6112
▁lips	-11.6116
price	-11.6118
▁pays	-11.6121
▁dear	-11.6122
▁marking	-11.6124
▁bare	-11.6128
▁Representatives	-11.613
▁Billy	-11.6132
▁Celtics	-11.6133
▁tribes	-11.6133
▁musicians	-11.6135
▁Shah	-11.6135
bee	-11.6138
▁Sox	-11.6139
▁Leafs	-11.6139
▁magazines	-11.6141
▁Bear	-11.6144
▁revelations	-11.6145
900	-11.6146
▁labels	-11.6148
▁31,	-11.615
▁preced	-11.6151
▁ce	-11.6152
note	-11.6153
▁Vi	-11.6156
▁160	-11.6158
▁intervene	-11.6158
▁edges	-11.6159
xi	-11.6159
▁Ga	-11.616
?!	-11.6167
going	-11.6168
they	-11.617
▁wise	-11.6171
row	-11.6171
▁69	-11.6173
▁earnings	-11.6174
▁VP	-11.6174
▁novels	-11.6176
250	-11.6177
▁editing	-11.618
site	-11.618
▁Wing	-11.6186
▁Ty	-11.6188
▁Tell	-11.6188
wi	-11.6193
▁considers	-11.6193
utterly	-11.6196
▁replay	-11.6197
ien	-11.6199
130	-11.6202
now	-11.6204
▁symbols	-11.6205
▁bl	-11.6207
▁rocks	-11.6208
▁draws	-11.6211
Net	-11.6216
▁sectors	-11.6217
▁specialists	-11.6219
▁Se	-11.6222
▁13-	-11.6224
▁respected	-11.6225
▁battles	-11.623
▁combines	-11.623
▁tokens	-11.6233
▁AB	-11.6234
▁Jam	-11.6235
▁compounds	-11.6244
▁cops	-11.6245
▁Em	-11.6245
owed	-11.6245
position	-11.6247
▁classical	-11.6249
▁killings	-11.6257
ada	-11.6261
▁Sol	-11.6265
▁Sat	-11.6266
▁Studios	-11.6268
▁minimize	-11.6268
404	-11.6274
▁Nat	-11.6276
263	-11.6278
rated	-11.6278
▁tactic	-11.6279
▁Mid	-11.6284
▁hearings	-11.6286
▁robots	-11.6286
▁Swan	-11.6289
du	-11.6293
▁7-	-11.6294
▁Lt	-11.63
ren	-11.6307
▁decides	-11.6315
▁doubts	-11.6315
▁lovely	-11.6315
▁alike	-11.6316
ffordable	-11.6317
▁Crimea	-11.6319
▁margins	-11.6321
▁meals	-11.6322
▁threads	-11.6322
▁circles	-11.6328
▁prohibit	-11.6332
▁execute	-11.6334
.6%	-11.6338
▁athletic	-11.6352
▁filters	-11.6353
▁wings	-11.6353
▁proves	-11.6353
▁wallet	-11.6355
▁mosque	-11.6356
▁Eve	-11.6356
▁milestone	-11.6356
▁handgun	-11.6357
▁temple	-11.6358
▁liver	-11.6359
▁blanket	-11.6359
▁animation	-11.636
▁thumb	-11.6362
je	-11.6364
▁merit	-11.6364
▁Member	-11.6365
▁Eagle	-11.6365
▁shark	-11.6365
RE	-11.6366
▁preference	-11.6366
▁Weather	-11.6366
▁touchdown	-11.6366
▁capitalist	-11.6367
▁modules	-11.6368
▁atop	-11.6369
▁recommendation	-11.6369
▁vaccine	-11.6369
▁Face	-11.6372
▁successor	-11.6375
▁translation	-11.6377
▁euro	-11.6377
▁slave	-11.6378
bal	-11.6383
▁highway	-11.6389
▁140	-11.6391
▁Sources	-11.6392
▁Bird	-11.6394
▁BP	-11.6394
▁dragon	-11.6396
weight	-11.6397
▁hearts	-11.6397
▁bridges	-11.6397
▁filming	-11.6401
▁Mini	-11.6402
▁conflicts	-11.6403
▁parliamentar	-11.6405
▁indication	-11.6411
service	-11.6412
▁EP	-11.6412
▁Rat	-11.6413
Now	-11.6417
▁FP	-11.6425
▁pilots	-11.6427
put	-11.6428
▁$6	-11.6433
▁prisons	-11.6439
ilicon	-11.6441
▁qualify	-11.6445
3000000000000147	-11.6447
▁rebuild	-11.6449
▁Par	-11.645
▁Unit	-11.6451
▁Made	-11.6451
ora	-11.6452
▁3,000	-11.6455
▁activate	-11.6465
▁criticize	-11.6466
305	-11.6471
▁weaken	-11.6474
hat	-11.6474
▁Villa	-11.6479
▁immense	-11.6479
▁manifest	-11.648
▁inherent	-11.648
▁SW	-11.6486
▁geographic	-11.6487
▁cricket	-11.6491
▁psychiatri	-11.6491
▁teenage	-11.6492
▁trauma	-11.6492
▁cruel	-11.6492
Occupy	-11.6493
▁Arthur	-11.6493
▁Birmingham	-11.6493
▁Connecticut	-11.6493
▁Evil	-11.6493
▁Independence	-11.6493
▁Snyder	-11.6493
▁Vatican	-11.6493
▁arriving	-11.6493
▁debris	-11.6493
▁experiencing	-11.6493
▁exterior	-11.6493
▁revenge	-11.6493
▁stomach	-11.6493
▁Welsh	-11.6493
▁Soccer	-11.6493
▁Broncos	-11.6493
▁Claire	-11.6493
▁gallery	-11.6493
▁fifty	-11.6493
▁imprisonment	-11.6493
▁Budget	-11.6493
▁Hudson	-11.6493
▁bankruptcy	-11.6493
▁Cathar	-11.6493
▁Luther	-11.6493
▁entity	-11.6493
▁burial	-11.6493
▁unhappy	-11.6493
▁Joyce	-11.6493
▁crackdown	-11.6493
▁Running	-11.6493
▁priorities	-11.6493
▁shutdown	-11.6494
▁HBO	-11.6494
▁disregard	-11.6494
▁MLB	-11.6494
▁embassy	-11.6494
▁Urban	-11.6494
▁steadily	-11.6494
▁Michelle	-11.6494
▁blew	-11.6494
▁stimulus	-11.6494
-22	-11.6494
▁illustration	-11.6494
▁SNP	-11.6495
▁spray	-11.6495
▁Sullivan	-11.6495
▁credibility	-11.6495
▁declining	-11.6495
▁Average	-11.6495
▁plague	-11.6495
▁Laden	-11.6495
▁Throughout	-11.6495
▁Medicine	-11.6495
▁recreational	-11.6495
▁interim	-11.6496
▁Lower	-11.6496
▁crowdfunding	-11.6496
shirts	-11.6497
▁Barbara	-11.6498
▁cite	-11.6498
▁profiles	-11.6498
▁Heroes	-11.6498
▁1944	-11.6498
▁Television	-11.6499
▁lit	-11.6499
▁Connor	-11.65
▁Sch	-11.65
▁Limited	-11.65
▁Mitch	-11.65
▁passive	-11.65
▁withdrawal	-11.65
▁Wade	-11.65
▁Brewing	-11.6501
▁baseline	-11.6501
▁Insider	-11.6501
▁buzz	-11.6501
▁sexism	-11.6502
▁Arkansas	-11.6502
▁Computer	-11.6502
▁Robertson	-11.6503
▁Racing	-11.6503
▁affirm	-11.6503
▁bass	-11.6504
▁enrolled	-11.6504
wick	-11.6507
▁viral	-11.6507
▁naked	-11.6508
▁washed	-11.6509
▁Belt	-11.651
▁trio	-11.6511
ica	-11.6514
▁legislators	-11.6514
▁ski	-11.6514
▁sometime	-11.6515
▁30%	-11.6515
▁triumph	-11.6516
▁Manning	-11.6517
▁shelf	-11.6518
▁delighted	-11.6518
▁VA	-11.6519
▁AS	-11.6519
▁understandable	-11.6519
human	-11.652
▁Milk	-11.6521
▁Stream	-11.6521
warded	-11.6522
▁est	-11.6522
▁sharply	-11.6523
▁miners	-11.6524
▁intensive	-11.6526
▁Flag	-11.6526
▁wa	-11.6526
▁permanently	-11.6527
▁impacts	-11.6527
▁utilize	-11.6527
shaped	-11.6527
▁questionable	-11.6529
▁laughed	-11.6531
▁Costa	-11.6531
▁Colts	-11.6532
▁emphasized	-11.6532
▁aggressively	-11.6532
▁Fine	-11.6533
▁partial	-11.6534
▁Beat	-11.6535
▁tempo	-11.6535
▁Mason	-11.654
▁lengthy	-11.654
shi	-11.654
▁staffers	-11.6541
0000000000000	-11.6545
▁evaluated	-11.6547
▁outer	-11.6547
▁Fun	-11.655
llowing	-11.655
(#	-11.6551
▁altered	-11.6552
▁analyses	-11.6553
face	-11.6556
▁proceedings	-11.6557
-30	-11.6558
ME	-11.6559
▁molecules	-11.6562
▁heal	-11.6563
▁Stan	-11.6563
▁Schools	-11.6564
2000000000000146	-11.6564
▁mounted	-11.6565
▁beans	-11.6568
▁Jobs	-11.6572
▁intentional	-11.6576
gy	-11.6582
▁14-	-11.6582
▁vitamin	-11.6586
ika	-11.6587
▁listened	-11.6588
▁hunters	-11.6591
▁crashed	-11.6592
▁Citizens	-11.6593
▁Same	-11.6594
mperial	-11.6599
▁builds	-11.6603
▁SB	-11.6604
▁82	-11.6604
▁extends	-11.6608
MS	-11.661
▁purchases	-11.661
gu	-11.6611
▁(3)	-11.6613
637	-11.6619
▁bath	-11.6621
▁dose	-11.6622
▁dare	-11.6624
sol	-11.6627
▁trades	-11.6635
pi	-11.6641
▁bent	-11.6644
▁parked	-11.6645
ties	-11.6648
▁DO	-11.6648
▁aides	-11.665
▁bricks	-11.6653
▁SD	-11.6654
▁doubled	-11.6656
UR	-11.6665
▁demonstrations	-11.6666
▁sensors	-11.6666
▁yields	-11.6666
▁Hero	-11.6675
lay	-11.6676
▁Hope	-11.6679
seat	-11.668
DC	-11.6684
▁Cr	-11.6685
▁Pla	-11.6687
▁attributes	-11.6691
ei	-11.6695
524	-11.6696
ock	-11.6706
▁plea	-11.6709
load	-11.6709
▁shifting	-11.6712
▁designers	-11.6712
▁Cam	-11.6712
▁Switch	-11.6713
▁Mal	-11.6716
▁commands	-11.6718
app	-11.6719
body	-11.6723
▁ballots	-11.6733
ification	-11.6738
cha	-11.6738
▁logical	-11.6741
ably	-11.6741
igh	-11.6742
▁Ol	-11.6742
▁suite	-11.6743
oon	-11.6745
▁dip	-11.6746
▁recordings	-11.6746
See	-11.6748
▁instrument	-11.6749
▁Mari	-11.675
▁Kent	-11.6753
▁leak	-11.6755
▁(10	-11.6757
▁contracted	-11.6757
▁Pe	-11.6758
▁des	-11.6767
073	-11.677
207	-11.6775
▁monsters	-11.6776
ON	-11.678
▁DE	-11.6783
▁matched	-11.6784
▁confirms	-11.6785
also	-11.6785
▁2018.	-11.6794
tive	-11.6795
▁spam	-11.6795
eri	-11.6795
ene	-11.6795
▁Pac	-11.6796
sum	-11.6797
▁counting	-11.6802
Go	-11.6806
▁tricks	-11.6807
▁colour	-11.6807
▁tent	-11.6807
▁socially	-11.6808
▁graduates	-11.6808
ations	-11.6813
014	-11.6816
▁raises	-11.6817
▁noon	-11.6817
Na	-11.6823
.'"	-11.6823
▁metaphor	-11.6824
cca	-11.6825
▁professors	-11.6827
wearing	-11.6827
▁Hindu	-11.683
▁funeral	-11.6832
▁clouds	-11.6832
▁cartoon	-11.6834
▁laser	-11.6834
show	-11.6835
▁motivation	-11.6835
▁submission	-11.6835
▁assertion	-11.6835
▁hub	-11.6836
▁predecessor	-11.6837
▁helmet	-11.6837
▁ghost	-11.6837
▁friendship	-11.6838
ati	-11.6839
-19	-11.6839
▁cousin	-11.684
▁[/	-11.684
▁medication	-11.6842
wheel	-11.6842
▁commissioner	-11.6843
▁chunk	-11.6844
▁contender	-11.6845
▁manufacturer	-11.6845
▁pickup	-11.6846
▁Pakistani	-11.6848
▁packs	-11.6848
chan	-11.6854
▁afterward	-11.6854
▁cord	-11.6856
▁feminist	-11.6857
047	-11.686
▁twin	-11.686
▁Matter	-11.6862
▁farmer	-11.6863
ightened	-11.6864
▁Ren	-11.6867
▁Te	-11.6868
▁pad	-11.6869
798	-11.6869
yan	-11.6871
▁tale	-11.6872
▁Tribe	-11.6873
▁snap	-11.6874
nick	-11.6874
▁SA	-11.6877
real	-11.6882
▁rage	-11.6884
▁publications	-11.6886
String	-11.6887
Color	-11.6887
worthy	-11.6888
Please	-11.6888
Team	-11.6888
mentioned	-11.6888
project	-11.6888
From	-11.6888
Look	-11.6888
driven	-11.689
▁Tar	-11.689
▁LG	-11.6891
▁SM	-11.6896
▁---	-11.6905
▁Fred	-11.6906
▁villages	-11.6907
▁geo	-11.6908
▁strengthen	-11.6908
▁cute	-11.6911
▁verse	-11.6914
▁Fight	-11.6917
▁scroll	-11.6919
▁Train	-11.6919
▁RE	-11.6922
▁locals	-11.6925
▁scenarios	-11.6926
▁Tweet	-11.6926
▁advances	-11.6929
▁suck	-11.693
▁databases	-11.6932
▁utiliz	-11.6932
lain	-11.6937
▁caring	-11.6938
150	-11.6938
▁caution	-11.6939
ain	-11.6939
▁loot	-11.6939
▁portray	-11.6939
▁slid	-11.6941
▁calculate	-11.6942
▁mock	-11.6944
ett	-11.6951
▁1975	-11.6952
▁spare	-11.6952
▁bake	-11.6952
▁sword	-11.6956
085	-11.6958
▁cruise	-11.6958
▁generous	-11.6961
CO	-11.6964
▁Leonard	-11.6965
tra	-11.6965
▁#2	-11.6967
▁Confederate	-11.6969
▁Duffy	-11.6969
▁Enforcement	-11.6969
▁Hezbollah	-11.6969
▁Minneapolis	-11.6969
▁Richmond	-11.6969
▁Singapore	-11.6969
▁Weinstein	-11.6969
▁WhatsApp	-11.6969
▁clarify	-11.6969
▁convenience	-11.6969
▁cycling	-11.6969
▁diagram	-11.6969
▁imminent	-11.6969
▁provincial	-11.6969
▁purple	-11.6969
▁syndrome	-11.6969
▁ubiquitous	-11.6969
▁Sterling	-11.6969
▁Telegraph	-11.6969
▁galaxy	-11.6969
▁injunction	-11.6969
▁primaries	-11.6969
▁tropical	-11.6969
▁ADHD	-11.6969
▁tangible	-11.6969
▁Jennifer	-11.6969
▁WordPress	-11.6969
▁entries	-11.6969
▁structural	-11.6969
▁Holmes	-11.6969
▁Colbert	-11.6969
vertex	-11.6969
▁sacred	-11.6969
▁appreciation	-11.6969
▁Conclusion	-11.6969
▁NYPD	-11.6969
▁Vincent	-11.6969
▁nuance	-11.6969
▁foremost	-11.6969
▁Dublin	-11.6969
▁Newcastle	-11.6969
▁Tumblr	-11.6969
▁liability	-11.6969
▁Newsletter	-11.6969
▁Collection	-11.6969
▁hedge	-11.6969
span	-11.6969
▁Crystal	-11.6969
▁olive	-11.6969
▁vault	-11.6969
▁yeast	-11.6969
▁hierarchy	-11.697
▁Progressive	-11.697
kHz	-11.697
▁terrifying	-11.697
▁greenhouse	-11.6971
▁licensing	-11.6971
▁Alternative	-11.6971
▁Cannabis	-11.6971
▁Zodiac	-11.6971
▁indictment	-11.6971
▁backlash	-11.6971
▁Danish	-11.6971
▁Broadway	-11.6971
▁assure	-11.6972
▁varies	-11.6972
▁03	-11.6972
▁binary	-11.6972
▁endorsement	-11.6972
▁pork	-11.6972
▁bang	-11.6973
▁Counter	-11.6973
▁PhD	-11.6973
▁Abbott	-11.6973
▁Baby	-11.6974
▁injection	-11.6975
▁Above	-11.6975
▁Milwaukee	-11.6975
▁inclined	-11.6975
▁Pretty	-11.6975
▁isolation	-11.6975
▁Kelley	-11.6975
▁unacceptable	-11.6976
▁SSD	-11.6976
▁Stock	-11.6976
▁demonstrating	-11.6977
▁mapping	-11.6977
▁centres	-11.6977
ben	-11.6978
▁Burke	-11.6978
▁SpaceX	-11.6978
▁TPP	-11.6978
▁scattered	-11.6978
▁fastest	-11.6978
▁1974	-11.6978
▁1984	-11.6978
▁reap	-11.6979
▁fallout	-11.6979
▁Easy	-11.6979
▁Libyan	-11.6979
▁Agent	-11.6979
aj	-11.698
▁Emily	-11.698
▁Thai	-11.6982
▁Elsa	-11.6982
▁aggression	-11.6983
▁effectiveness	-11.6984
▁exclude	-11.6985
▁Partners	-11.6985
▁enacted	-11.6985
▁columnist	-11.6985
par	-11.6986
▁25%	-11.6986
▁Marcus	-11.6987
▁Certainly	-11.6987
▁Chronicle	-11.6987
lit	-11.6987
');	-11.6987
045	-11.6987
▁Packers	-11.6988
▁bombing	-11.6989
▁expressions	-11.6989
▁Theater	-11.6989
▁encrypted	-11.6989
▁homeland	-11.699
▁Dere	-11.6992
▁meantime	-11.6992
▁Everybody	-11.6992
▁Were	-11.6992
▁catches	-11.6993
▁tricky	-11.6993
Mo	-11.6994
▁assured	-11.6997
▁medal	-11.6999
▁launches	-11.6999
▁($	-11.7
▁depicted	-11.7
▁candy	-11.7002
▁mechanics	-11.7004
▁woke	-11.7004
story	-11.7004
▁weaker	-11.7005
▁Ji	-11.7006
▁dense	-11.7007
▁Niagara	-11.7007
▁Marie	-11.7011
▁sealed	-11.7011
▁drilling	-11.7012
▁mph	-11.7012
▁loving	-11.7012
▁Text	-11.7012
ily	-11.7018
funded	-11.702
rush	-11.7022
▁cooking	-11.7022
▁Browns	-11.7022
lb	-11.7026
▁wildly	-11.7031
▁tourists	-11.7033
▁invented	-11.7034
▁Arabs	-11.7034
▁fur	-11.7035
040	-11.7035
▁tires	-11.7036
▁Qaeda	-11.7036
▁401	-11.7037
.5%	-11.7038
▁Ark	-11.704
330	-11.704
UP	-11.7041
▁programmers	-11.7044
▁Falcons	-11.7048
▁firearms	-11.7049
▁veto	-11.7051
▁mill	-11.7058
▁alarming	-11.706
▁vendors	-11.7061
▁Color	-11.7065
▁bypass	-11.7071
▁shorter	-11.7071
▁flu	-11.7073
using	-11.7074
▁Friends	-11.7076
Car	-11.708
▁Mao	-11.7081
789	-11.7081
ova	-11.7088
▁MC	-11.7089
▁remembers	-11.709
5200000000000015	-11.7091
▁ambitions	-11.7093
hop	-11.7097
av	-11.7098
looking	-11.7107
088	-11.7108
▁crafting	-11.711
▁"[	-11.7116
896	-11.7117
▁suited	-11.7123
30,000	-11.7124
!!	-11.7125
▁tally	-11.7125
ants	-11.7127
▁holders	-11.7128
▁explored	-11.7129
▁scrap	-11.7131
▁observations	-11.7131
265	-11.7132
constructive	-11.7132
▁assaulted	-11.7136
103	-11.7136
▁obligations	-11.7138
▁Gi	-11.714
▁kg	-11.714
lt	-11.7142
non	-11.7143
▁$25	-11.7144
0000000000000146	-11.7145
▁Por	-11.715
even	-11.7157
▁handy	-11.716
▁damages	-11.7161
proving	-11.7162
021	-11.7164
037	-11.7167
▁penetrate	-11.7176
▁sporting	-11.7177
▁gaining	-11.7181
▁str	-11.7181
1000000000000152	-11.7183
▁Xi	-11.7183
FS	-11.7185
RS	-11.7185
▁budgets	-11.7185
▁Path	-11.7186
▁rises	-11.7187
.[8]	-11.7187
▁Less	-11.719
▁deposit	-11.7191
▁designing	-11.7195
reliance	-11.7196
▁bones	-11.7197
125	-11.7199
▁comprise	-11.7201
ui	-11.7202
▁amendments	-11.7202
056	-11.7206
tr	-11.7206
▁Stalin	-11.7207
▁Indians	-11.7208
▁traces	-11.7208
▁5%	-11.7212
▁fuels	-11.7223
▁electronics	-11.7228
oke	-11.7234
▁Fi	-11.7238
▁Dear	-11.7243
▁Allah	-11.7246
nal	-11.7251
▁Ice	-11.7252
protective	-11.7253
▁Edwards	-11.7254
▁patents	-11.7255
5000000000000152	-11.7255
▁Shan	-11.7256
ert	-11.7259
146	-11.726
▁poet	-11.7262
ROM	-11.7263
▁Wine	-11.7263
▁renew	-11.7265
fish	-11.7269
bi	-11.7273
▁Met	-11.7274
▁Wal	-11.7281
.[10]	-11.7286
▁Neo	-11.7288
▁clinic	-11.7301
▁rebound	-11.7302
dor	-11.7302
she	-11.7307
ern	-11.7308
▁locks	-11.7314
▁informal	-11.7318
▁recalls	-11.7322
▁advisor	-11.7324
▁holidays	-11.7326
▁souls	-11.7326
▁trails	-11.7326
▁feat	-11.7329
▁neighbourhood	-11.7329
▁accommodation	-11.7329
▁Chamber	-11.7332
▁hotels	-11.7333
▁prohibition	-11.7333
▁strategist	-11.7334
▁premiere	-11.7335
power	-11.7336
wan	-11.7337
▁Border	-11.7339
▁zombie	-11.7339
lis	-11.7339
▁priest	-11.734
▁ambition	-11.734
▁screenshot	-11.7341
▁behave	-11.7341
▁negotiation	-11.7342
▁examination	-11.7342
▁mentor	-11.7344
▁decks	-11.7345
wept	-11.7346
▁Dog	-11.7346
.[1	-11.7347
262	-11.7348
filled	-11.7352
340	-11.7352
▁corporation	-11.7353
▁Latino	-11.7353
value	-11.7356
▁LED	-11.7358
▁visitor	-11.7359
▁84	-11.7363
▁norm	-11.7363
▁persist	-11.7364
makers	-11.7369
▁kills	-11.7372
▁delight	-11.7376
▁Jacobs	-11.7376
written	-11.7381
shaw	-11.7383
hook	-11.7384
control	-11.7387
piece	-11.7387
click	-11.7388
Just	-11.7388
through	-11.7388
Whil	-11.7389
grown	-11.7389
▁editions	-11.7389
▁Systems	-11.7391
was	-11.7391
force	-11.7394
Americans	-11.7396
▁reviewing	-11.7397
030	-11.74
▁tackles	-11.74
,600	-11.7404
▁storms	-11.7404
building	-11.7408
ag	-11.7408
sk	-11.7411
475	-11.7413
▁Prof	-11.7414
bank	-11.7415
▁opera	-11.7415
▁beast	-11.7416
▁Kar	-11.7416
IF	-11.7418
just	-11.742
▁drift	-11.7421
▁heroin	-11.7427
▁shrink	-11.7427
▁loses	-11.7428
4700000000000015	-11.743
info	-11.7431
▁lobby	-11.7431
▁18-	-11.7433
how	-11.7435
▁Holland	-11.7439
051	-11.744
▁os	-11.7442
▁stimulate	-11.7445
▁#3	-11.7448
ural	-11.7449
▁conquer	-11.745
▁Hence	-11.7455
digenous	-11.7455
▁deliberate	-11.7456
▁literal	-11.7456
▁Darwin	-11.7457
▁Eight	-11.7458
176	-11.7462
▁crap	-11.7462
▁Buck	-11.7463
▁colonial	-11.7463
▁warnings	-11.7463
454	-11.7464
▁Haiti	-11.7466
▁actress	-11.7466
▁Ellis	-11.7467
▁prais	-11.7467
▁transplant	-11.7468
blical	-11.7469
▁Brigade	-11.7469
▁BuzzFeed	-11.7469
▁Category	-11.7469
▁Commonwealth	-11.7469
▁Duterte	-11.7469
▁Especially	-11.7469
▁Eugene	-11.7469
▁Junior	-11.7469
▁Kurdistan	-11.7469
▁LinkedIn	-11.7469
▁Malcolm	-11.7469
▁Memphis	-11.7469
▁Mohammad	-11.7469
▁Montgomery	-11.7469
▁civic	-11.7469
▁diameter	-11.7469
▁grief	-11.7469
▁inaccurate	-11.7469
▁neglect	-11.7469
▁occurrence	-11.7469
▁paradise	-11.7469
▁unleash	-11.7469
▁Complaint	-11.7469
▁Gingrich	-11.7469
▁lucrative	-11.7469
▁GOOD	-11.7469
▁revolt	-11.7469
▁umbrella	-11.7469
nvalid	-11.7469
▁eliminating	-11.7469
▁Gallery	-11.7469
▁Gerald	-11.7469
▁Nigeria	-11.7469
▁Firefox	-11.7469
▁prestigious	-11.7469
▁ceasefire	-11.7469
▁damaging	-11.7469
▁Register	-11.7469
▁Kurds	-11.7469
▁repression	-11.7469
▁Baseball	-11.7469
▁abusive	-11.7469
▁incumbent	-11.7469
▁Blair	-11.7469
▁spatial	-11.7469
▁Logan	-11.747
▁traction	-11.747
▁wildlife	-11.747
▁devil	-11.747
▁ignorance	-11.747
▁Everton	-11.747
pping	-11.747
▁Lisa	-11.747
▁medieval	-11.7471
▁lightning	-11.7471
▁undercover	-11.7471
▁Palin	-11.7471
▁HTTP	-11.7471
▁Nexus	-11.7471
▁accustomed	-11.7471
▁Portuguese	-11.7471
▁suspicion	-11.7471
▁censorship	-11.7471
▁Message	-11.7471
▁navigate	-11.7472
▁Garcia	-11.7472
▁roast	-11.7472
▁LP	-11.7472
▁depressed	-11.7473
ara	-11.7473
▁Jesse	-11.7474
▁Schmidt	-11.7474
▁activism	-11.7474
literary	-11.7474
▁homosexual	-11.7474
▁1968	-11.7474
▁investigati	-11.7475
▁dealer	-11.7475
▁imagery	-11.7475
▁Hopkins	-11.7475
▁magnitude	-11.7475
▁Genesis	-11.7475
▁MSNBC	-11.7475
▁Duncan	-11.7475
▁Annual	-11.7476
▁Basic	-11.7476
▁ankle	-11.7476
▁Flint	-11.7476
▁Grey	-11.7476
▁GPS	-11.7476
▁sheep	-11.7476
▁Snow	-11.7477
▁Cities	-11.7477
▁Horizon	-11.7477
▁Process	-11.7478
▁Wii	-11.7478
▁Often	-11.7479
▁sail	-11.7479
▁Solar	-11.7479
▁Introduction	-11.748
▁Alpha	-11.748
▁thoroughly	-11.748
▁Jared	-11.748
▁underwater	-11.748
▁bidding	-11.748
▁Complete	-11.7481
▁prevention	-11.7481
▁Nichola	-11.7482
▁1971	-11.7482
▁Said	-11.7482
▁Protect	-11.7482
▁ego	-11.7482
▁exploded	-11.7482
▁anime	-11.7482
▁Il	-11.7483
▁offended	-11.7483
▁Angela	-11.7483
▁fixes	-11.7484
▁feminism	-11.7484
▁Zach	-11.7484
▁Alice	-11.7484
▁playback	-11.7484
▁assembled	-11.7485
▁1,500	-11.7485
▁Advanced	-11.7485
▁outfit	-11.7486
▁silly	-11.7486
▁specialty	-11.7486
▁Witch	-11.7487
sley	-11.7487
▁1987	-11.7488
▁Sau	-11.7489
▁config	-11.7489
▁uncovered	-11.7489
▁sprawling	-11.7489
▁stark	-11.749
shaking	-11.7492
▁Dolphins	-11.7492
▁Array	-11.7493
▁seekers	-11.7494
▁Zone	-11.7494
▁exhausted	-11.7494
▁Bryant	-11.7494
▁apologized	-11.7495
naval	-11.7495
▁Julian	-11.7495
▁Published	-11.7496
▁slamm	-11.7498
▁Rodgers	-11.7499
▁tenth	-11.75
▁rcx	-11.7501
▁cliff	-11.7501
uck	-11.7501
▁cooked	-11.7503
▁Shia	-11.7503
▁fitting	-11.7504
▁Info	-11.7504
Ma	-11.7505
▁Role	-11.7505
▁Ju	-11.7505
▁rsp	-11.7505
▁pale	-11.7506
▁rings	-11.7506
▁Half	-11.7507
TA	-11.7508
018	-11.7508
▁anticipated	-11.7509
afe	-11.7512
▁sue	-11.7514
▁Commander	-11.7516
▁ethical	-11.7516
▁Rocky	-11.7518
▁simpler	-11.7519
▁applicants	-11.7519
▁atmospheric	-11.752
▁Shot	-11.7521
ssuming	-11.7522
6000000000000153	-11.7526
043	-11.7526
019	-11.7526
▁adapted	-11.7526
▁commitments	-11.753
▁radius	-11.7531
gi	-11.7532
TO	-11.7532
▁governing	-11.7533
▁lib	-11.7534
▁possessed	-11.7534
itz	-11.7534
▁Kirk	-11.7534
▁==	-11.7535
▁obscure	-11.7536
▁dire	-11.7536
▁unconscious	-11.7537
▁Push	-11.7542
▁famously	-11.7543
eal	-11.7546
▁Resources	-11.7546
▁meter	-11.7546
▁licensed	-11.7548
promotional	-11.7549
▁Ru	-11.7551
▁Mu	-11.7554
▁climbing	-11.7554
▁scare	-11.7556
▁someday	-11.7557
ington	-11.7557
▁administrators	-11.7559
ago	-11.7559
▁reps	-11.756
NY	-11.7566
chen	-11.7567
▁acquir	-11.7568
▁solved	-11.7568
ising	-11.757
▁$300	-11.7571
▁indie	-11.7571
ris	-11.7571
▁critically	-11.7574
CTV	-11.7575
▁GL	-11.758
▁measurements	-11.758
▁Cover	-11.7582
273	-11.7584
▁jailed	-11.7586
rock	-11.7597
3000000000000153	-11.7598
lar	-11.7598
▁retailers	-11.76
ering	-11.76
elecommunication	-11.7601
bed	-11.7602
▁shine	-11.7607
▁bann	-11.7608
▁(7	-11.7608
▁$200	-11.761
▁newer	-11.7614
▁shifts	-11.7614
▁EA	-11.7615
ified	-11.762
▁physicians	-11.7622
▁Fig	-11.7623
▁4.5	-11.7626
▁assumptions	-11.7626
▁Jet	-11.7627
▁prayers	-11.7629
▁dirt	-11.7633
eca	-11.7637
417	-11.7638
▁$30	-11.7639
▁Pictures	-11.764
▁100-	-11.7642
▁Mat	-11.7645
▁GT	-11.7647
▁Sinn	-11.7649
az	-11.7651
▁bits	-11.7652
focused	-11.7655
▁toll	-11.7657
▁101	-11.7657
▁Ve	-11.7662
▁Gal	-11.7663
▁#4	-11.7663
▁11.	-11.7663
▁Gang	-11.7666
▁recruit	-11.7675
▁judged	-11.7675
470	-11.7676
mula	-11.7678
▁00000000000000(	-11.7678
13-	-11.7687
▁barrels	-11.7687
▁bullets	-11.7688
▁tablets	-11.77
bbb	-11.77
dad	-11.7703
▁seeds	-11.7704
▁advisers	-11.7709
▁infections	-11.7715
▁PCs	-11.7719
▁cracks	-11.7724
▁Rams	-11.7725
060	-11.7726
▁Raw	-11.7731
▁Ana	-11.7733
▁lag	-11.7734
▁Mali	-11.7735
ular	-11.7737
ffa	-11.7739
MB	-11.7739
tin	-11.7743
▁Yorker	-11.7744
▁sums	-11.7745
▁arrives	-11.7749
▁assessments	-11.7756
▁pie	-11.7759
tis	-11.7761
▁beside	-11.7763
▁logs	-11.7763
oli	-11.7765
▁Youth	-11.7767
try	-11.7769
group	-11.777
▁exceptions	-11.7774
9%	-11.7774
▁tracked	-11.7776
▁rivers	-11.7777
▁grim	-11.7777
▁-1	-11.7779
▁Die	-11.7783
▁Heaven	-11.7784
aging	-11.7786
314	-11.7786
zu	-11.7789
▁perceptions	-11.779
▁objectives	-11.779
▁Ave	-11.7792
NS	-11.7792
▁touching	-11.7795
▁debated	-11.7802
▁gods	-11.7806
tory	-11.7808
425	-11.7814
▁receivers	-11.7816
aki	-11.7817
▁championships	-11.7824
▁Release	-11.7828
▁evolve	-11.7828
▁drill	-11.783
nar	-11.7834
▁behavioral	-11.7842
▁ruin	-11.7842
▁lb	-11.7848
▁fluid	-11.7855
▁gym	-11.7856
▁Fre	-11.7856
▁Bro	-11.7857
EE	-11.7858
▁apartments	-11.7859
lip	-11.786
▁glimpse	-11.7861
▁companion	-11.7863
▁civilization	-11.7864
▁helicopter	-11.7864
▁distinction	-11.7865
▁Legend	-11.7865
▁Developer	-11.7866
▁::	-11.7866
▁MO	-11.7866
▁portrait	-11.7867
▁scholar	-11.7867
▁trait	-11.7867
▁revelation	-11.7867
▁ingredient	-11.7868
▁defendant	-11.7869
▁Greens	-11.7869
▁renewable	-11.7871
▁namely	-11.7872
▁Ker	-11.7873
▁Sche	-11.7878
▁Min	-11.7881
▁shade	-11.7883
▁Cape	-11.7887
▁retailer	-11.7887
▁programmes	-11.7888
▁extremist	-11.7891
▁Caesar	-11.7893
▁350	-11.7893
file	-11.7893
▁Hat	-11.7894
▁Pink	-11.7897
▁speculate	-11.79
▁WG	-11.7901
▁complain	-11.7903
▁Rev	-11.7903
667	-11.7905
oid	-11.7906
child	-11.7912
▁lord	-11.7913
▁1964	-11.7913
paid	-11.7914
degree	-11.7914
defense	-11.7914
language	-11.7914
People	-11.7914
three	-11.7915
fighter	-11.7916
140	-11.7916
inspired	-11.7917
nia	-11.7919
759	-11.7919
although	-11.7921
▁scream	-11.7921
0000000000000153	-11.7922
ku	-11.7923
▁rolls	-11.7926
354	-11.7927
standing	-11.793
cell	-11.7934
▁Adult	-11.7936
▁secur	-11.7936
543	-11.7936
▁89	-11.7937
▁bot	-11.7938
6,000	-11.7941
▁Rank	-11.7941
aw	-11.7942
.3%	-11.7943
fee	-11.7943
▁spawn	-11.7945
gged	-11.7947
673	-11.7949
▁fi	-11.7951
green	-11.7955
roll	-11.7959
▁dies	-11.796
▁culminat	-11.7962
Well	-11.7963
▁fatigue	-11.7965
▁macro	-11.7966
▁accelerate	-11.7968
▁apologize	-11.7968
▁spirits	-11.7969
093	-11.797
uthorities	-11.7971
nie	-11.7971
▁clash	-11.7971
▁realise	-11.7974
case	-11.7974
▁Mega	-11.7974
▁alleg	-11.7976
▁sneak	-11.7976
▁conservation	-11.7979
frac	-11.798
Note	-11.7981
▁urgent	-11.7982
▁Similar	-11.7982
▁hilarious	-11.7983
SC	-11.7983
4%	-11.7984
▁Perfect	-11.7985
▁reset	-11.7986
▁freeze	-11.7987
211	-11.7988
▁stor	-11.799
▁transcript	-11.7992
▁municipal	-11.7994
▁bipartisan	-11.7995
▁freak	-11.7995
▁Commerce	-11.7995
▁Czech	-11.7995
▁Heritage	-11.7995
▁Legacy	-11.7995
▁Untradeable	-11.7995
▁Winnipeg	-11.7995
▁arsenal	-11.7995
▁cryptocurrency	-11.7995
▁graduation	-11.7995
▁happily	-11.7995
▁kilometre	-11.7995
▁memorial	-11.7995
▁necessity	-11.7995
▁practicing	-11.7995
▁receipt	-11.7995
▁reversal	-11.7995
▁staple	-11.7995
▁exclusion	-11.7995
▁litigation	-11.7995
▁tuition	-11.7995
▁Elector	-11.7995
▁Pyongyang	-11.7995
▁inadequate	-11.7995
▁juvenile	-11.7995
▁quantities	-11.7995
▁garage	-11.7995
▁Metropoli	-11.7995
▁Auburn	-11.7995
▁genome	-11.7995
▁qualities	-11.7995
▁unlawful	-11.7995
▁circumcision	-11.7995
▁clarity	-11.7995
▁composite	-11.7995
▁gently	-11.7995
▁benchmark	-11.7995
▁probation	-11.7995
▁Anything	-11.7995
▁Jefferson	-11.7995
▁collaborative	-11.7995
▁Country	-11.7996
▁accessories	-11.7996
▁Carroll	-11.7996
▁rugby	-11.7996
▁insulin	-11.7996
used	-11.7996
▁conceptual	-11.7996
▁Engine	-11.7996
▁Ashley	-11.7996
▁Housing	-11.7996
▁thrust	-11.7996
▁stint	-11.7996
▁shipped	-11.7996
▁automation	-11.7996
▁Yale	-11.7996
▁Fresh	-11.7996
▁midnight	-11.7996
▁Launch	-11.7996
▁Memory	-11.7996
▁Sleep	-11.7996
▁denies	-11.7996
▁alignment	-11.7997
▁Maple	-11.7997
▁lightweight	-11.7997
▁pact	-11.7997
▁ferment	-11.7997
▁stain	-11.7997
▁plausible	-11.7997
▁probable	-11.7997
▁boundary	-11.7997
▁lend	-11.7997
▁preseason	-11.7997
▁Gregory	-11.7997
▁Conway	-11.7997
▁Armenian	-11.7997
▁Hughes	-11.7997
▁Traffic	-11.7997
▁Boehner	-11.7998
▁Industrial	-11.7998
▁McCarthy	-11.7998
▁Mediterranean	-11.7998
▁subsidies	-11.7998
▁Veteran	-11.7998
▁crore	-11.7998
▁messaging	-11.7998
▁sadness	-11.7998
▁Investment	-11.7998
▁hover	-11.7998
▁voluntary	-11.7998
AR	-11.7999
▁Combat	-11.7999
▁battlefield	-11.7999
▁outreach	-11.7999
▁aggregate	-11.7999
shire	-11.7999
▁tailor	-11.8
WITH	-11.8
▁rejection	-11.8
▁predictable	-11.8001
▁rig	-11.8001
▁Electric	-11.8002
▁glue	-11.8002
▁2,500	-11.8002
▁profitable	-11.8002
▁Quote	-11.8002
▁Isaac	-11.8002
▁visibility	-11.8002
▁Enjoy	-11.8002
▁Shawn	-11.8002
▁Voice	-11.8002
▁Trevor	-11.8002
▁ladies	-11.8002
▁Hood	-11.8002
▁Anonymous	-11.8002
▁Elliott	-11.8003
▁forthcoming	-11.8003
▁occurring	-11.8003
▁FCC	-11.8003
▁Electronic	-11.8003
▁Lea	-11.8003
▁arise	-11.8004
▁transmitted	-11.8004
▁Hanson	-11.8004
▁eaten	-11.8004
▁cow	-11.8004
▁deepest	-11.8004
▁obsess	-11.8004
▁freshman	-11.8005
▁swimming	-11.8005
▁1945	-11.8005
▁Freeman	-11.8005
▁Garda	-11.8005
▁Result	-11.8006
▁pricing	-11.8007
▁hydrogen	-11.8007
▁sexist	-11.8007
▁Clearly	-11.8007
▁destructive	-11.8007
bbe	-11.8008
▁digest	-11.8008
▁doomed	-11.8008
160	-11.8009
▁coding	-11.8013
▁1900	-11.8013
▁Texans	-11.8013
runner	-11.8014
▁backpack	-11.8014
▁fading	-11.8016
▁Leap	-11.8017
▁700	-11.8017
▁portal	-11.8019
▁shouted	-11.802
tting	-11.802
▁Sha	-11.8023
▁Wow	-11.8024
▁bored	-11.8024
▁entertaining	-11.8025
▁cheating	-11.8026
▁Lead	-11.8026
▁Musk	-11.8029
▁Drew	-11.8034
▁Wizards	-11.8034
▁listeners	-11.8034
▁presidents	-11.8034
▁hydro	-11.8035
▁Butler	-11.8036
▁rides	-11.8036
522	-11.8036
▁closes	-11.8037
▁regulated	-11.8037
▁quicker	-11.8038
▁Welcome	-11.8038
▁biased	-11.8039
▁warriors	-11.8041
▁metres	-11.8043
▁radically	-11.8044
▁CF	-11.8044
▁businessman	-11.8045
▁Fighting	-11.8047
▁firefighters	-11.8048
▁BY	-11.8049
▁vial	-11.805
▁caps	-11.8052
▁Customer	-11.8052
Men	-11.8053
▁retained	-11.8054
▁interfere	-11.8057
247	-11.8058
ante	-11.8059
▁minors	-11.806
▁preserved	-11.8061
▁Person	-11.8061
▁Phillips	-11.8062
▁embraced	-11.8064
aaa	-11.8064
▁Experts	-11.8065
▁autonomous	-11.8065
▁compromised	-11.8066
▁proudly	-11.8066
ux	-11.8066
▁Dunn	-11.8069
▁mold	-11.8071
▁potatoes	-11.8071
▁rewarded	-11.8072
031	-11.8073
▁defeats	-11.8074
▁tortured	-11.8076
▁disclosed	-11.8077
▁heels	-11.8079
793	-11.8079
066	-11.8083
have	-11.8084
▁treasure	-11.8084
▁Sims	-11.8085
▁fold	-11.8086
▁Meat	-11.8091
▁Ivan	-11.8092
▁cracking	-11.8092
mate	-11.8094
▁MA	-11.8098
▁Woods	-11.81
▁linear	-11.8105
than	-11.8107
▁Angels	-11.8107
▁Questions	-11.8108
pot	-11.811
ban	-11.8111
▁affiliation	-11.8115
▁lawsuits	-11.8116
▁instrumental	-11.8119
ml	-11.8121
010	-11.8124
▁talents	-11.8125
▁Legends	-11.8126
▁Rise	-11.8128
▁(12	-11.8129
▁facto	-11.8131
024	-11.8134
▁pads	-11.8141
▁Sin	-11.8141
kind	-11.8144
▁troubles	-11.8146
▁sci	-11.8147
▁vaccines	-11.8147
▁Bud	-11.8149
▁texts	-11.815
▁dev	-11.815
ace	-11.8154
142	-11.8154
such	-11.8156
▁poise	-11.8157
▁Transfer	-11.8158
▁imp	-11.8159
▁directory	-11.8164
▁Gay	-11.8167
ryl	-11.8168
▁advertisements	-11.8169
Le	-11.8176
▁Close	-11.8176
rranged	-11.8176
▁Ste	-11.8177
▁[]	-11.8181
▁Tel	-11.8182
▁celebrations	-11.8183
▁muscles	-11.8183
sbury	-11.8187
▁Socialist	-11.819
026	-11.819
ido	-11.8194
▁21.	-11.8199
rad	-11.8204
▁abused	-11.8204
▁pairs	-11.8204
▁convictions	-11.8212
▁AD	-11.8214
▁21-	-11.8216
▁intends	-11.8219
▁Girls	-11.8219
▁proceeds	-11.822
wall	-11.8223
▁corners	-11.8226
▁flowing	-11.8227
▁mentioning	-11.8227
0700000000000015	-11.8233
assigned	-11.8233
▁cares	-11.8238
▁architect	-11.8239
▁clips	-11.8242
▁BB	-11.8248
SCP	-11.8251
▁Stars	-11.8252
▁Bel	-11.826
▁aliens	-11.8262
092	-11.8263
554	-11.8269
▁lawn	-11.827
▁Sta	-11.8271
765	-11.8275
▁habit	-11.8275
-13	-11.8279
▁controllers	-11.8279
▁credited	-11.8281
▁GA	-11.8282
▁nationally	-11.8291
▁shin	-11.8293
▁83	-11.8295
yo	-11.8296
▁23-	-11.8297
▁130	-11.8299
▁Poll	-11.8302
HS	-11.8305
▁XL	-11.8308
bu	-11.8308
La	-11.831
▁spec	-11.831
▁maker	-11.8316
enter	-11.8318
documented	-11.8318
security	-11.8318
author	-11.8321
▁theaters	-11.8321
▁''	-11.8327
▁React	-11.8329
playing	-11.8335
ep	-11.8336
oko	-11.8337
▁ni	-11.8338
▁sheets	-11.8339
▁0.5	-11.8339
▁insult	-11.8342
508	-11.8343
▁Drop	-11.8344
final	-11.8345
ther	-11.8354
▁collections	-11.8359
▁religions	-11.8365
▁800	-11.837
▁understands	-11.8371
▁impacted	-11.8373
▁Fat	-11.8374
650	-11.8374
▁showcase	-11.8375
▁Egg	-11.8376
yne	-11.8381
▁Championships	-11.8385
736	-11.8392
4)	-11.8394
gel	-11.8396
▁phrases	-11.8399
▁creep	-11.8401
▁Criminal	-11.8406
▁Bishop	-11.8411
1%	-11.8412
▁Tra	-11.8413
▁synagogue	-11.8414
▁throat	-11.8414
▁gu	-11.8415
▁Athletic	-11.8415
SH	-11.8416
▁pal	-11.8417
▁prescription	-11.8418
▁airline	-11.8418
▁populist	-11.8418
▁vector	-11.8418
▁virtue	-11.8418
▁concession	-11.8421
▁neighbour	-11.8421
▁provinces	-11.8421
▁Cardinal	-11.8421
▁banner	-11.8422
▁Letter	-11.8422
▁Attack	-11.8423
▁subscription	-11.8423
▁participant	-11.8424
▁plugin	-11.8425
▁1.4	-11.8425
▁barbe	-11.8425
▁indicator	-11.8425
▁adjustment	-11.8428
hole	-11.8429
▁dude	-11.8429
▁Patriot	-11.843
▁Pirate	-11.8431
ille	-11.8431
700	-11.8433
▁matchup	-11.8434
732	-11.8434
▁stranger	-11.8436
▁offence	-11.8436
▁villain	-11.8438
▁Leaf	-11.844
ila	-11.8442
release	-11.8442
▁marriages	-11.8445
▁Andrea	-11.8446
▁upward	-11.8446
▁stat	-11.8449
▁beam	-11.8451
▁shoe	-11.8453
TE	-11.8459
len	-11.8461
▁Lion	-11.8464
▁ya	-11.8466
cat	-11.8467
Type	-11.8468
Life	-11.847
General	-11.847
Because	-11.847
153	-11.847
664	-11.8472
▁borrow	-11.8473
▁rack	-11.8473
▁exhaust	-11.8474
gar	-11.8477
▁manga	-11.8479
▁WE	-11.8481
▁ES	-11.8485
▁surviv	-11.849
▁Fisher	-11.849
455	-11.8492
▁complement	-11.8495
▁das	-11.8497
▁zoo	-11.8497
▁swap	-11.85
ph	-11.8501
▁horn	-11.8502
▁summon	-11.8502
▁satisfy	-11.8503
py	-11.8507
▁imports	-11.851
amo	-11.851
/3	-11.851
646	-11.8513
▁_	-11.8515
▁Enter	-11.8516
lib	-11.8519
▁drain	-11.8523
▁bounce	-11.8523
▁Monitor	-11.8523
▁Videos	-11.8524
wage	-11.8525
▁humble	-11.8526
▁Doom	-11.8527
▁Period	-11.8527
067	-11.8531
▁naive	-11.8532
▁Chan	-11.8536
▁unsuccessful	-11.8537
▁Previous	-11.8538
▁$1,000	-11.8539
▁scripts	-11.8539
▁eventual	-11.8539
▁screw	-11.8543
▁reluctant	-11.8544
▁holder	-11.8544
▁inspect	-11.8547
▁chairs	-11.8548
▁superhero	-11.8548
▁initiate	-11.8548
▁liqu	-11.8549
▁attacker	-11.8549
▁Odd	-11.855
▁inherit	-11.855
▁Holocaust	-11.8551
▁Chocolate	-11.8551
▁JUST	-11.8551
▁Lloyd	-11.8551
▁Rockefeller	-11.8551
▁Umbral	-11.8551
▁appetite	-11.8551
▁celebrities	-11.8551
▁dignity	-11.8551
▁discriminate	-11.8551
▁fortunate	-11.8551
▁ordinance	-11.8551
▁whatsoever	-11.8551
▁benign	-11.8551
▁computing	-11.8551
▁liberties	-11.8551
▁terrain	-11.8551
▁pertain	-11.8551
ffffff	-11.8551
▁Seoul	-11.8551
▁subscribing	-11.8551
▁disguise	-11.8551
▁Ferrari	-11.8551
▁Uganda	-11.8551
▁joking	-11.8551
▁spicy	-11.8551
▁stabbed	-11.8551
▁smiling	-11.8551
▁dried	-11.8551
▁empathy	-11.8551
▁organizing	-11.8551
▁Trading	-11.8551
▁cried	-11.8551
▁manuscript	-11.8551
▁pornography	-11.8551
▁Bannon	-11.8551
▁stunned	-11.8551
▁decay	-11.8551
▁repository	-11.8551
▁dominance	-11.8551
▁generic	-11.8551
▁constraints	-11.8551
▁dependencies	-11.8551
▁connectivity	-11.8551
▁Trophy	-11.8551
▁criticizing	-11.8551
▁mosquito	-11.8551
▁Chargers	-11.8551
▁Kumar	-11.8551
▁autonomy	-11.8551
▁liking	-11.8551
▁bandwidth	-11.8551
▁Wildlife	-11.8551
▁aisle	-11.8551
▁loyalty	-11.8551
▁compartment	-11.8551
▁Garfield	-11.8551
▁MVP	-11.8551
▁Transportation	-11.8551
▁biologist	-11.8552
▁shelves	-11.8552
▁encode	-11.8552
▁Prix	-11.8552
▁digging	-11.8552
▁breakthrough	-11.8552
▁dedication	-11.8552
▁rapper	-11.8552
▁DACA	-11.8552
▁aerial	-11.8552
▁disappointment	-11.8552
▁BMW	-11.8552
▁enduring	-11.8553
▁stole	-11.8553
▁verified	-11.8553
▁Caribbean	-11.8553
▁Kremlin	-11.8553
▁Mourinho	-11.8553
▁Portugal	-11.8553
▁Writing	-11.8553
▁volatile	-11.8553
▁confidential	-11.8554
▁prolong	-11.8554
▁Harbor	-11.8554
▁personalities	-11.8554
▁Coleman	-11.8554
▁Harold	-11.8554
▁cement	-11.8554
▁Growth	-11.8555
May	-11.8556
▁Irving	-11.8556
▁Address	-11.8556
▁instructor	-11.8556
▁morality	-11.8556
▁Screen	-11.8557
▁vegan	-11.8557
▁certainty	-11.8558
▁dismissal	-11.8558
▁20,000	-11.8558
▁Gibson	-11.8558
▁Belgium	-11.8558
▁applicable	-11.8558
▁Companies	-11.8558
▁Primary	-11.8558
▁Airlines	-11.8558
▁progression	-11.8559
▁Christianity	-11.8559
▁Ghost	-11.8559
▁noble	-11.8559
▁mustard	-11.856
▁subjective	-11.856
▁1977	-11.8561
▁NPR	-11.8561
▁Interior	-11.8561
▁73	-11.8561
SP	-11.8562
▁polar	-11.8562
▁populated	-11.8563
▁Simpson	-11.8563
▁Notice	-11.8563
▁noticeable	-11.8563
Squadron	-11.8564
▁nude	-11.8564
▁Witness	-11.8564
▁exposing	-11.8566
▁poke	-11.8566
▁adhere	-11.8567
▁Troy	-11.8567
▁enthusiastic	-11.8567
▁activation	-11.8568
▁Palestine	-11.8568
▁blank	-11.8568
▁Runner	-11.8568
▁valued	-11.8568
▁promptly	-11.8568
▁Optional	-11.8568
▁hailed	-11.8569
▁Topics	-11.8569
▁Dust	-11.857
▁jaw	-11.857
▁Gas	-11.8571
SON	-11.8572
▁irony	-11.8572
▁fascist	-11.8572
▁badge	-11.8573
▁Feel	-11.8573
▁Calif	-11.8574
▁Chair	-11.8574
▁renown	-11.8574
▁rdx	-11.8578
▁compliment	-11.8578
▁valuation	-11.8581
▁dash	-11.8581
▁ruined	-11.8581
▁consuming	-11.8582
▁renewed	-11.8583
▁prone	-11.8583
▁constituents	-11.8584
▁NEW	-11.8584
▁lobbyists	-11.8585
▁Brewers	-11.8585
▁stellar	-11.8587
▁overthrow	-11.8587
pur	-11.8588
▁recognised	-11.859
▁collectively	-11.8591
▁Courtesy	-11.8591
▁Cubs	-11.8592
177	-11.8593
573	-11.8595
▁occupying	-11.8595
▁travelle	-11.8596
▁jack	-11.8596
▁borrowing	-11.8598
▁50,000	-11.86
▁mob	-11.86
▁fist	-11.8601
▁lending	-11.8602
▁Tale	-11.8603
▁illustrated	-11.8604
rus	-11.8605
▁squeeze	-11.8609
email	-11.861
▁diplomats	-11.8614
▁Male	-11.8615
fba	-11.8616
▁offline	-11.8616
vis	-11.8618
▁backwards	-11.8622
▁offenders	-11.8623
▁Tan	-11.8624
797	-11.8626
▁sync	-11.8628
▁particles	-11.863
▁ka	-11.8632
▁graduated	-11.8632
block	-11.8642
▁Uncle	-11.8642
▁institute	-11.8643
▁Steel	-11.8645
▁organs	-11.8646
▁flows	-11.8646
▁Legal	-11.8647
TX	-11.8648
▁advocated	-11.8651
▁crafted	-11.8651
095	-11.8651
▁Sense	-11.8652
▁handler	-11.8655
▁spine	-11.8656
▁GP	-11.8657
▁massively	-11.8657
▁northeast	-11.866
▁tactical	-11.8661
▁Features	-11.8662
▁Actor	-11.8666
▁contested	-11.8669
ello	-11.8673
▁Move	-11.8673
Let	-11.8673
▁retrieve	-11.8674
▁Comics	-11.8674
▁repeating	-11.8681
▁booked	-11.8681
▁villains	-11.8681
track	-11.8682
▁Cardinals	-11.8682
324	-11.8685
▁Tal	-11.8687
▁palm	-11.8688
Set	-11.8689
▁CC	-11.869
▁Generally	-11.8691
duced	-11.8694
▁mat	-11.8695
▁rebounds	-11.8698
061	-11.8698
▁66	-11.8699
557	-11.87
reaching	-11.8702
▁Kan	-11.8702
fu	-11.8708
▁tales	-11.871
▁(3	-11.8711
▁enabl	-11.8723
▁startups	-11.8725
▁pitchers	-11.8727
0000	-11.8738
cho	-11.8741
▁Account	-11.8744
▁Kids	-11.8746
044	-11.8748
063	-11.8749
▁Reporter	-11.875
ven	-11.875
▁installing	-11.875
vin	-11.8751
▁warns	-11.8756
▁Operations	-11.8757
▁discounts	-11.8757
▁concentrations	-11.8757
▁algorithms	-11.8759
506	-11.8765
▁Ja	-11.8767
901	-11.8771
▁Cu	-11.8778
▁pastor	-11.8781
dev	-11.8783
▁lesser	-11.8783
▁feared	-11.8784
▁lecture	-11.8789
.[13]	-11.879
ogg	-11.8792
317	-11.8794
store	-11.8795
bac	-11.8795
325	-11.8801
▁Economics	-11.8803
▁4)	-11.8803
4100000000000015	-11.8808
qui	-11.8809
=0	-11.8816
▁Sue	-11.8821
▁vi	-11.8824
▁icons	-11.8826
▁4.0	-11.8828
▁1983	-11.8829
[3]	-11.883
▁Oak	-11.8831
078	-11.8832
00000000063	-11.8832
▁hurting	-11.8839
▁riot	-11.8841
lated	-11.8841
lee	-11.8844
vid	-11.8845
▁launcher	-11.8849
▁goalie	-11.8861
are	-11.8865
▁104	-11.8867
▁Tro	-11.8871
▁mate	-11.8872
▁compris	-11.8873
▁(0	-11.8879
▁Jays	-11.888
▁2004.	-11.8881
hunt	-11.8885
▁tooth	-11.8886
Researchers	-11.8888
▁Bee	-11.889
▁overlook	-11.8896
▁ye	-11.89
▁cr	-11.8903
cia	-11.8903
271	-11.8906
488	-11.8907
bdb	-11.8908
tu	-11.8909
ERS	-11.891
▁Int	-11.8917
Po	-11.8921
▁SP	-11.8924
▁forests	-11.8926
mas	-11.893
▁Farm	-11.8931
President	-11.8939
▁Creat	-11.8942
eva	-11.8944
▁Record	-11.8948
▁(18	-11.8951
▁8-	-11.8953
▁replicate	-11.8961
▁Os	-11.8962
▁Pell	-11.8963
▁devote	-11.8966
▁Vot	-11.8971
162	-11.8971
▁teachings	-11.8971
▁Dad	-11.8972
875	-11.8972
▁SO	-11.8975
▁2006.	-11.8975
lian	-11.8975
city	-11.8982
▁Bra	-11.8982
Of	-11.8982
▁drum	-11.8985
▁breathe	-11.8986
▁coordinate	-11.8988
280	-11.899
eba	-11.8991
look	-11.8994
▁psycho	-11.8996
▁Nar	-11.8999
▁envision	-11.8999
▁confrontation	-11.9
ute	-11.9001
▁watchdog	-11.9002
▁hats	-11.9003
▁consultation	-11.9004
▁landmark	-11.9004
▁balloon	-11.9004
▁installment	-11.9005
▁judgement	-11.9005
▁Owen	-11.9005
▁admission	-11.9006
▁quarters	-11.9006
▁marketplace	-11.9007
▁evaluation	-11.9007
▁motive	-11.9008
food	-11.9009
▁inspection	-11.9009
▁pedestrian	-11.9009
▁Celtic	-11.9011
▁Comic	-11.9011
▁tribe	-11.9011
▁dinosaur	-11.9011
▁taxpayer	-11.9012
▁Philippine	-11.9012
730	-11.9013
▁objection	-11.9013
▁venue	-11.9016
▁measurement	-11.9016
▁Citizen	-11.9018
ami	-11.9018
▁athlete	-11.9019
▁dictate	-11.9021
▁musician	-11.9021
754	-11.9023
▁0.9	-11.9024
ente	-11.9024
▁Ag	-11.9025
▁schedules	-11.9027
bbc	-11.9028
▁sweat	-11.9031
▁freedoms	-11.9035
▁contractor	-11.9036
bec	-11.9037
TF	-11.9039
▁slash	-11.9042
too	-11.9043
▁ruler	-11.9045
▁ver	-11.9047
▁inch	-11.9049
▁ok	-11.9054
guard	-11.9055
text	-11.9056
Qaeda	-11.9056
▁prop	-11.9057
woman	-11.9058
shift	-11.9058
First	-11.9058
David	-11.9058
Trump	-11.9058
something	-11.9058
status	-11.9059
▁rum	-11.906
Russian	-11.906
707	-11.9061
▁Bern	-11.9062
▁cables	-11.9065
▁taxi	-11.9065
Day	-11.9065
▁surround	-11.9065
File	-11.9066
▁recount	-11.9066
▁captur	-11.9067
▁envelope	-11.9069
.[12]	-11.9072
▁explanations	-11.9072
▁Tree	-11.9074
hal	-11.9077
ump	-11.9078
pu	-11.9079
▁columns	-11.908
▁thunder	-11.908
▁ri	-11.9081
▁advocat	-11.9084
▁Southeast	-11.9085
bel	-11.909
▁occupy	-11.9092
▁Carr	-11.9094
7000000000000153	-11.9094
▁hike	-11.9095
▁ro	-11.91
▁loads	-11.9102
Here	-11.9103
▁assassin	-11.9104
tripped	-11.9107
▁Interest	-11.9109
▁cloth	-11.9114
▁skip	-11.9117
shoot	-11.9117
012	-11.9119
▁(16	-11.9119
▁cease	-11.9119
▁concede	-11.9119
▁Quick	-11.9122
uren	-11.9126
▁thorough	-11.9126
▁Ultimate	-11.9126
▁blunt	-11.9126
bea	-11.9127
▁1963	-11.9128
▁Frost	-11.9131
▁Lance	-11.9133
▁stall	-11.9133
▁Helen	-11.9133
▁Clear	-11.9134
▁cycles	-11.9135
▁Glen	-11.9135
▁Branch	-11.9135
▁caucus	-11.9136
▁Schneider	-11.9137
▁inconsistent	-11.9137
ault	-11.9138
▁ruthless	-11.9138
▁exempt	-11.9138
▁junk	-11.9138
aladin	-11.9138
▁singular	-11.9138
▁Living	-11.9138
▁pundit	-11.9138
▁Present	-11.9139
▁Alfred	-11.9139
▁candidacy	-11.9139
▁discretion	-11.9139
responsibilities	-11.9139
unconstitutional	-11.9139
▁Agreement	-11.9139
▁Benghazi	-11.9139
▁Boulevard	-11.9139
▁Embassy	-11.9139
▁Legislature	-11.9139
▁Pelosi	-11.9139
▁Saskatchewan	-11.9139
▁Summary	-11.9139
▁Walmart	-11.9139
▁leather	-11.9139
▁mathematics	-11.9139
▁patience	-11.9139
▁primitive	-11.9139
▁timber	-11.9139
▁vicious	-11.9139
▁vinyl	-11.9139
▁anonymity	-11.9139
▁commodity	-11.9139
▁figuring	-11.9139
▁gratitude	-11.9139
▁lithium	-11.9139
▁Knicks	-11.9139
▁complication	-11.9139
▁detriment	-11.9139
▁relocate	-11.9139
▁Securities	-11.9139
▁embark	-11.9139
▁Bahrain	-11.9139
▁Erdogan	-11.9139
▁Revenue	-11.9139
▁bilateral	-11.9139
▁curriculum	-11.9139
▁entitlement	-11.9139
▁Motorola	-11.9139
▁bisexual	-11.9139
▁Sexual	-11.9139
▁ladder	-11.9139
▁liberation	-11.9139
▁Lambert	-11.9139
▁coincidence	-11.9139
▁ribbon	-11.9139
▁consistency	-11.9139
▁scanning	-11.9139
▁compilation	-11.9139
▁Westminster	-11.9139
▁Advisor	-11.9139
▁impeachment	-11.9139
▁Mosul	-11.9139
▁Globe	-11.9139
▁misdemeanor	-11.9139
▁infectious	-11.9139
▁Planning	-11.9139
▁forbidden	-11.9139
356	-11.9139
▁Boeing	-11.9139
▁breweries	-11.9139
▁honey	-11.914
▁worthwhile	-11.914
▁infringement	-11.914
▁rehabilitation	-11.914
▁Zimmerman	-11.914
▁crab	-11.914
▁nonetheless	-11.914
▁lemon	-11.914
▁Castro	-11.914
▁Diane	-11.914
▁nightclub	-11.914
▁Louisville	-11.914
▁NSW	-11.914
▁separation	-11.914
▁Shift	-11.914
▁congressman	-11.914
▁firmware	-11.914
▁Ottoman	-11.914
▁ostensibly	-11.914
▁Investigation	-11.914
▁Haley	-11.9141
▁Kick	-11.9141
▁ballistic	-11.9141
▁lining	-11.9141
▁Elder	-11.9141
▁Mur	-11.9141
▁transmission	-11.9141
▁Princeton	-11.9141
▁devastated	-11.9141
▁pronounced	-11.9142
▁scarce	-11.9142
▁undocumented	-11.9142
▁Discovery	-11.9142
▁LDS	-11.9142
▁brutality	-11.9142
▁artwork	-11.9142
▁Privacy	-11.9142
▁Alcohol	-11.9142
▁Holiday	-11.9142
▁Monsanto	-11.9142
▁Orioles	-11.9142
▁Twenty	-11.9142
▁Vanderbilt	-11.9142
▁cautious	-11.9142
▁troubling	-11.9142
▁harmony	-11.9142
▁Toyota	-11.9142
▁Lopez	-11.9142
▁Ellen	-11.9142
▁Ghana	-11.9142
▁psychiatrist	-11.9142
▁compassion	-11.9142
▁Crown	-11.9142
▁Initially	-11.9142
▁Factor	-11.9142
▁pants	-11.9143
▁standpoint	-11.9143
▁Patch	-11.9143
▁discoveries	-11.9143
▁Bobby	-11.9143
▁Hook	-11.9143
▁dull	-11.9144
▁hardcore	-11.9144
▁Peterson	-11.9144
▁resent	-11.9144
---	-11.9145
▁Rust	-11.9145
▁Richardson	-11.9145
▁merchandise	-11.9145
▁Julie	-11.9146
▁recognise	-11.9146
▁destiny	-11.9146
orpheus	-11.9146
▁entirety	-11.9146
▁directive	-11.9146
▁fairness	-11.9147
▁Hernandez	-11.9147
▁recycling	-11.9147
▁overwhelmed	-11.9147
▁Simple	-11.9147
▁Extra	-11.9147
▁dishes	-11.9147
▁Ranch	-11.9148
▁statewide	-11.9148
▁anthem	-11.9148
▁potent	-11.9148
▁merger	-11.9149
▁Reef	-11.9149
▁RSS	-11.9149
▁mystic	-11.9149
▁1976	-11.915
▁halfway	-11.915
quantum	-11.915
▁advisory	-11.9151
▁1959	-11.9151
▁HERE	-11.9152
▁Camera	-11.9152
▁Install	-11.9152
▁Body	-11.9153
▁oversee	-11.9154
▁Sorry	-11.9154
▁Hold	-11.9154
▁ANY	-11.9154
▁Ze	-11.9155
▁favorable	-11.9155
▁Indigenous	-11.9155
▁campuses	-11.9156
▁ERA	-11.9157
▁purported	-11.9157
▁Seth	-11.9158
▁outstanding	-11.9158
▁Always	-11.9158
▁query	-11.9159
Timothy	-11.9161
▁Wave	-11.9162
▁melted	-11.9163
▁Rush	-11.9163
▁TIME	-11.9163
▁Won	-11.9164
▁Cox	-11.9164
area	-11.9165
▁tolerated	-11.9165
▁neurons	-11.9165
▁Options	-11.9167
▁collar	-11.9167
▁Anatolia	-11.917
▁Forum	-11.9171
▁1940	-11.9171
▁Ye	-11.9172
▁designation	-11.9172
▁ranges	-11.9173
▁CSS	-11.9174
▁RPG	-11.9174
▁uploaded	-11.9174
▁Details	-11.9174
050	-11.9176
▁Nash	-11.9177
▁Thousands	-11.9177
has	-11.9177
▁dots	-11.9178
▁admin	-11.9178
▁invisible	-11.9178
▁rendered	-11.918
▁Arch	-11.918
▁diving	-11.9181
▁Coming	-11.9182
▁wolf	-11.9182
▁specialized	-11.9183
▁Eli	-11.9187
▁accuse	-11.9188
▁relaxed	-11.9189
Pro	-11.9191
▁screaming	-11.9192
▁activated	-11.9193
▁soap	-11.9194
▁pursued	-11.9196
▁stemm	-11.9198
▁suburbs	-11.9199
▁Dor	-11.9199
▁overhead	-11.92
mple	-11.9201
▁flaws	-11.9201
▁downside	-11.9202
▁ARE	-11.9204
▁injustice	-11.9205
▁9-	-11.9205
▁Heights	-11.9206
▁insects	-11.9206
▁$14	-11.9209
▁Deutsche	-11.9213
▁28.	-11.9214
▁promotes	-11.9215
▁911	-11.9219
▁Walt	-11.9222
▁Amy	-11.9223
nut	-11.9225
▁entrepreneurs	-11.9227
▁den	-11.923
▁cyclists	-11.923
elli	-11.9231
nit	-11.9231
▁asteroid	-11.9233
▁outright	-11.9234
▁Stick	-11.9235
▁Farmer	-11.9238
▁HP	-11.9239
▁chill	-11.9239
▁poles	-11.924
▁bloody	-11.9241
tag	-11.9242
▁sheer	-11.9243
▁spelling	-11.9243
▁Cable	-11.9243
▁antibiotics	-11.9244
▁tubes	-11.9245
▁eliminated	-11.9247
▁archives	-11.9247
▁staggering	-11.9249
▁factions	-11.9252
▁cooperate	-11.9253
▁40-	-11.9253
7)	-11.9254
▁Mas	-11.9258
141	-11.9259
▁honored	-11.9263
▁agrees	-11.9264
▁stretched	-11.9265
▁performers	-11.9267
▁nicely	-11.9268
▁Smoke	-11.927
▁IPA	-11.9273
▁referenced	-11.9275
155	-11.9277
▁135	-11.9277
▁dressing	-11.9277
▁neighbours	-11.9278
▁Mont	-11.9278
▁finals	-11.9281
▁94	-11.9282
▁Dia	-11.9284
▁Zen	-11.9287
▁drills	-11.9287
▁founding	-11.9287
▁sexy	-11.9287
▁Ship	-11.929
ual	-11.9291
632	-11.9292
▁Th	-11.9294
▁Perl	-11.9295
▁screenshots	-11.9295
▁$35	-11.9296
▁makeup	-11.9296
▁deposits	-11.9297
EL	-11.9301
deserving	-11.9302
555	-11.9303
otic	-11.9305
▁risky	-11.9307
lessness	-11.9307
▁euros	-11.931
aver	-11.931
▁deer	-11.9313
FI	-11.9317
▁metrics	-11.9318
▁cooler	-11.9318
▁Webb	-11.9321
▁Via	-11.9323
▁97	-11.9324
▁dimensions	-11.9329
868	-11.9329
med	-11.9332
▁Cut	-11.9332
anti	-11.9333
▁22-	-11.9333
▁hills	-11.9333
▁libertarians	-11.9334
▁opener	-11.9336
associated	-11.9336
0%	-11.9339
▁Gin	-11.9341
▁explosives	-11.9342
erry	-11.9344
▁VI	-11.9345
▁pipe	-11.9346
▁stretching	-11.9348
007	-11.9348
cec	-11.9349
▁variations	-11.935
▁containers	-11.9351
▁Happ	-11.9352
▁rituals	-11.9359
▁Nova	-11.9364
▁Stra	-11.9365
pod	-11.9366
995	-11.9368
▁concludes	-11.937
▁Knights	-11.9375
713	-11.9379
▁internationally	-11.938
feb	-11.9385
▁17.	-11.9386
dding	-11.9387
▁shout	-11.9391
▁Playing	-11.9394
▁paintings	-11.9399
env	-11.9401
▁Concept	-11.9402
▁Increase	-11.9402
▁boo	-11.9403
▁AC	-11.9404
▁Angel	-11.9406
▁processors	-11.9408
148	-11.9412
▁Cards	-11.9414
▁neuro	-11.9415
▁Him	-11.9416
▁genetics	-11.9421
matic	-11.9424
104	-11.9424
235	-11.9426
aff	-11.9428
099	-11.943
▁WA	-11.9432
▁Artist	-11.9434
ero	-11.9439
▁Cl	-11.9443
rise	-11.9448
503	-11.945
▁pictured	-11.945
.[19]	-11.9451
▁collaborate	-11.9451
▁Question	-11.9454
▁knees	-11.9454
▁rockets	-11.9456
▁Fer	-11.9456
kt	-11.9457
▁disputes	-11.9457
▁8.5	-11.9458
▁curat	-11.9458
▁Era	-11.9461
dfc	-11.9466
▁Boys	-11.9468
bell	-11.9469
▁Mall	-11.9471
▁customize	-11.9472
under	-11.9476
▁(17	-11.948
rat	-11.9481
graph	-11.9488
059	-11.9489
til	-11.9496
▁Dale	-11.9499
▁pat	-11.9509
NC	-11.9509
▁Shu	-11.9516
PC	-11.9522
▁Der	-11.9525
▁Jos	-11.9525
▁Pos	-11.9527
formally	-11.9529
stead	-11.9531
▁raids	-11.9531
aba	-11.9534
▁bounds	-11.9537
▁possessions	-11.9538
▁AN	-11.9538
▁SS	-11.9538
▁Bit	-11.9541
173	-11.9544
▁Points	-11.9552
002	-11.9554
third	-11.9556
409	-11.9556
4000000000000153	-11.9562
▁Into	-11.9564
door	-11.9567
GG	-11.9573
icit	-11.9575
MC	-11.9577
▁rot	-11.9585
▁satellites	-11.9586
267	-11.9593
udo	-11.9597
other	-11.9597
dar	-11.9599
▁gangs	-11.9602
▁APIs	-11.9603
▁Micro	-11.9604
▁Paper	-11.9608
esque	-11.9608
239	-11.9609
▁rhythm	-11.9611
▁16-	-11.9619
ured	-11.9622
▁pr	-11.9624
▁nightmare	-11.9625
▁Horse	-11.9626
▁illusion	-11.9627
▁idiot	-11.9628
▁Reason	-11.9629
▁comedian	-11.9629
▁accent	-11.9629
▁retro	-11.9629
▁inspector	-11.963
▁fingerprint	-11.963
▁narratives	-11.9631
▁ambulance	-11.9631
▁invention	-11.9631
▁interval	-11.9631
▁cellphone	-11.9631
▁predator	-11.9631
▁billionaire	-11.9633
ans	-11.9633
▁cooperative	-11.9633
▁shareholder	-11.9633
▁elephant	-11.9634
▁Dev	-11.9634
▁Halo	-11.9635
▁steak	-11.9635
▁Representative	-11.9635
▁blogger	-11.9636
▁Example	-11.9636
▁Nak	-11.9637
▁wrap	-11.9639
▁Champion	-11.9639
▁merchant	-11.964
▁limitation	-11.9644
▁reductions	-11.9644
▁Quest	-11.9644
uart	-11.9645
▁NPC	-11.9646
▁Fr	-11.9647
▁striker	-11.9651
▁pig	-11.9651
▁blade	-11.9652
▁hunter	-11.9652
863	-11.9653
997	-11.9655
bert	-11.9655
762	-11.9658
▁PAC	-11.966
119	-11.966
mont	-11.9661
aged	-11.9667
▁sanction	-11.9667
▁blessing	-11.9673
wire	-11.9673
▁ounce	-11.9673
omi	-11.9675
▁EM	-11.9676
▁Poe	-11.9678
cleric	-11.9679
proof	-11.968
worth	-11.9682
Mobile	-11.9682
Source	-11.9683
choice	-11.9683
2000000000000015	-11.9683
▁Bin	-11.9683
business	-11.9683
CNN	-11.9684
best	-11.9684
button	-11.9685
Over	-11.9687
running	-11.9688
▁tide	-11.9688
▁flower	-11.9688
▁prisoner	-11.9689
lum	-11.9695
will	-11.9701
▁Wu	-11.9701
mod	-11.9703
ough	-11.9711
▁Send	-11.9713
▁blues	-11.9713
▁treatments	-11.9713
what	-11.9716
564	-11.9716
255	-11.9717
▁Plant	-11.9718
013	-11.9718
▁definitions	-11.9719
791	-11.9728
▁Roma	-11.9728
RT	-11.9733
▁alleviat	-11.9734
▁Ab	-11.9735
027	-11.9735
▁Lenin	-11.9736
▁tolerate	-11.9737
▁grill	-11.9737
▁Form	-11.9737
▁dislike	-11.9738
▁Wil	-11.974
▁prep	-11.974
laden	-11.974
▁indulge	-11.974
▁14.	-11.9743
▁RS	-11.9744
▁invoke	-11.9745
▁seize	-11.9746
▁suspend	-11.9749
(1)	-11.975
▁Historical	-11.9752
▁stare	-11.9753
▁definitive	-11.9754
IR	-11.9754
▁Strange	-11.9755
▁Reports	-11.9755
905	-11.9756
▁institutional	-11.9757
six	-11.9757
▁gentle	-11.9758
▁Romania	-11.976
eligious	-11.976
▁(20	-11.976
▁Julia	-11.9761
fac	-11.9762
▁morph	-11.9762
▁contradict	-11.9762
▁marginal	-11.9762
▁Corporat	-11.9763
▁compress	-11.9763
▁Apart	-11.9764
▁blows	-11.9764
▁Quarter	-11.9764
▁Blizzard	-11.9764
▁Brennan	-11.9764
▁Carpenter	-11.9764
▁Diamond	-11.9764
▁Libertarian	-11.9764
▁Monument	-11.9764
▁Ramadan	-11.9764
▁Religion	-11.9764
▁Rutgers	-11.9764
▁Wikileaks	-11.9764
▁Wrong	-11.9764
▁catalyst	-11.9764
▁delicate	-11.9764
▁disastrous	-11.9764
▁easiest	-11.9764
▁feasible	-11.9764
▁gambling	-11.9764
▁intrusion	-11.9764
▁legitimacy	-11.9764
▁misogyny	-11.9764
▁pharmaceutical	-11.9764
▁secrecy	-11.9764
▁staunch	-11.9764
▁thriving	-11.9764
▁worries	-11.9764
▁Agriculture	-11.9764
▁Schwartz	-11.9764
▁Sierra	-11.9764
▁Simmons	-11.9764
▁Simply	-11.9764
▁examining	-11.9764
▁heterosexual	-11.9764
▁Canyon	-11.9764
▁caffeine	-11.9764
▁friction	-11.9764
▁tDCS	-11.9764
▁Einstein	-11.9764
▁replies	-11.9764
Multiple	-11.9764
▁Democracy	-11.9764
▁contingent	-11.9764
▁garbage	-11.9764
▁implies	-11.9764
='#	-11.9764
▁Dubai	-11.9764
▁bacon	-11.9764
▁imperative	-11.9764
▁inhabitants	-11.9764
▁[...]	-11.9764
▁proprietary	-11.9764
▁wives	-11.9764
▁blur	-11.9764
▁vivid	-11.9764
▁Abraham	-11.9764
[...]
